{
  "version": "1.0",
  "truncation": null,
  "padding": null,
  "added_tokens": [],
  "normalizer": {
    "type": "NFKC"
  },
  "pre_tokenizer": {
    "type": "Metaspace",
    "replacement": "▁",
    "prepend_scheme": "never",
    "split": true
  },
  "post_processor": null,
  "decoder": {
    "type": "Metaspace",
    "replacement": "▁",
    "prepend_scheme": "never",
    "split": true
  },
  "model": {
    "type": "BPE",
    "dropout": null,
    "unk_token": "<unk>",
    "continuing_subword_prefix": null,
    "end_of_word_suffix": null,
    "fuse_unk": false,
    "byte_fallback": false,
    "ignore_merges": false,
    "vocab": {
      "<unk>": 0,
      "\n": 1,
      "!": 2,
      "\"": 3,
      "#": 4,
      "$": 5,
      "%": 6,
      "&": 7,
      "'": 8,
      "(": 9,
      ")": 10,
      "*": 11,
      "+": 12,
      ",": 13,
      "-": 14,
      ".": 15,
      "/": 16,
      "0": 17,
      "1": 18,
      "2": 19,
      "3": 20,
      "4": 21,
      "5": 22,
      "6": 23,
      "7": 24,
      "8": 25,
      "9": 26,
      ":": 27,
      ";": 28,
      "<": 29,
      "=": 30,
      ">": 31,
      "?": 32,
      "A": 33,
      "B": 34,
      "C": 35,
      "D": 36,
      "E": 37,
      "F": 38,
      "G": 39,
      "H": 40,
      "I": 41,
      "J": 42,
      "K": 43,
      "L": 44,
      "M": 45,
      "N": 46,
      "O": 47,
      "P": 48,
      "Q": 49,
      "R": 50,
      "S": 51,
      "T": 52,
      "U": 53,
      "V": 54,
      "W": 55,
      "X": 56,
      "Y": 57,
      "Z": 58,
      "[": 59,
      "\\": 60,
      "]": 61,
      "^": 62,
      "_": 63,
      "`": 64,
      "a": 65,
      "b": 66,
      "c": 67,
      "d": 68,
      "e": 69,
      "f": 70,
      "g": 71,
      "h": 72,
      "i": 73,
      "j": 74,
      "k": 75,
      "l": 76,
      "m": 77,
      "n": 78,
      "o": 79,
      "p": 80,
      "q": 81,
      "r": 82,
      "s": 83,
      "t": 84,
      "u": 85,
      "v": 86,
      "w": 87,
      "x": 88,
      "y": 89,
      "z": 90,
      "{": 91,
      "|": 92,
      "}": 93,
      "~": 94,
      "°": 95,
      "·": 96,
      "Ö": 97,
      "á": 98,
      "â": 99,
      "æ": 100,
      "ç": 101,
      "è": 102,
      "é": 103,
      "í": 104,
      "ñ": 105,
      "ö": 106,
      "ü": 107,
      "ā": 108,
      "ī": 109,
      "İ": 110,
      "Ś": 111,
      "ś": 112,
      "ū": 113,
      "ș": 114,
      "ə": 115,
      "ɦ": 116,
      "ɪ": 117,
      "ɾ": 118,
      "ʊ": 119,
      "ʼ": 120,
      "ˈ": 121,
      "ː": 122,
      "ί": 123,
      "α": 124,
      "δ": 125,
      "θ": 126,
      "ν": 127,
      "π": 128,
      "ς": 129,
      "ό": 130,
      "ँ": 131,
      "ं": 132,
      "ः": 133,
      "अ": 134,
      "आ": 135,
      "इ": 136,
      "ई": 137,
      "उ": 138,
      "ऊ": 139,
      "ऋ": 140,
      "ऍ": 141,
      "ए": 142,
      "ऐ": 143,
      "ऑ": 144,
      "ओ": 145,
      "औ": 146,
      "क": 147,
      "ख": 148,
      "ग": 149,
      "घ": 150,
      "ङ": 151,
      "च": 152,
      "छ": 153,
      "ज": 154,
      "झ": 155,
      "ञ": 156,
      "ट": 157,
      "ठ": 158,
      "ड": 159,
      "ढ": 160,
      "ण": 161,
      "त": 162,
      "थ": 163,
      "द": 164,
      "ध": 165,
      "न": 166,
      "प": 167,
      "फ": 168,
      "ब": 169,
      "भ": 170,
      "म": 171,
      "य": 172,
      "र": 173,
      "ऱ": 174,
      "ल": 175,
      "ळ": 176,
      "व": 177,
      "श": 178,
      "ष": 179,
      "स": 180,
      "ह": 181,
      "़": 182,
      "ा": 183,
      "ि": 184,
      "ी": 185,
      "ु": 186,
      "ू": 187,
      "ृ": 188,
      "ॅ": 189,
      "े": 190,
      "ै": 191,
      "ॉ": 192,
      "ॊ": 193,
      "ो": 194,
      "ौ": 195,
      "्": 196,
      "ॠ": 197,
      "।": 198,
      "०": 199,
      "१": 200,
      "२": 201,
      "३": 202,
      "४": 203,
      "५": 204,
      "६": 205,
      "७": 206,
      "८": 207,
      "९": 208,
      "॰": 209,
      "ॲ": 210,
      "ం": 211,
      "ః": 212,
      "అ": 213,
      "ఆ": 214,
      "ఇ": 215,
      "ఈ": 216,
      "ఉ": 217,
      "ఋ": 218,
      "ఎ": 219,
      "ఏ": 220,
      "ఐ": 221,
      "ఒ": 222,
      "ఓ": 223,
      "ఔ": 224,
      "క": 225,
      "ఖ": 226,
      "గ": 227,
      "ఘ": 228,
      "చ": 229,
      "ఛ": 230,
      "జ": 231,
      "ఞ": 232,
      "ట": 233,
      "ఠ": 234,
      "డ": 235,
      "ఢ": 236,
      "ణ": 237,
      "త": 238,
      "థ": 239,
      "ద": 240,
      "ధ": 241,
      "న": 242,
      "ప": 243,
      "ఫ": 244,
      "బ": 245,
      "భ": 246,
      "మ": 247,
      "య": 248,
      "ర": 249,
      "ల": 250,
      "ళ": 251,
      "వ": 252,
      "శ": 253,
      "ష": 254,
      "స": 255,
      "హ": 256,
      "ా": 257,
      "ి": 258,
      "ీ": 259,
      "ు": 260,
      "ూ": 261,
      "ృ": 262,
      "ె": 263,
      "ే": 264,
      "ై": 265,
      "ొ": 266,
      "ో": 267,
      "ౌ": 268,
      "్": 269,
      "ṅ": 270,
      "ṇ": 271,
      "Ṛ": 272,
      "ṣ": 273,
      "ṭ": 274,
      "Ἰ": 275,
      "‌": 276,
      "‍": 277,
      "‎": 278,
      "–": 279,
      "—": 280,
      "‘": 281,
      "’": 282,
      "“": 283,
      "”": 284,
      "†": 285,
      "•": 286,
      "′": 287,
      "‹": 288,
      "›": 289,
      "⁡": 290,
      "₹": 291,
      "↑": 292,
      "−": 293,
      "▁": 294,
      "▲": 295,
      "﻿": 296,
      "ia": 297,
      "ki": 298,
      "wi": 299,
      "ik": 300,
      "iki": 301,
      "wiki": 302,
      "or": 303,
      "ed": 304,
      "di": 305,
      "dia": 306,
      "te": 307,
      "्य": 308,
      "ht": 309,
      "en": 310,
      "tp": 311,
      "pe": 312,
      ":/": 313,
      "tt": 314,
      "http": 315,
      "्र": 316,
      "](": 317,
      "://": 318,
      "htt": 319,
      "//": 320,
      "ps": 321,
      "(http": 322,
      "g/": 323,
      "](http": 324,
      "s://": 325,
      "https": 326,
      "hi": 327,
      "https://": 328,
      "](https://": 329,
      "ia.": 330,
      "ार": 331,
      "in": 332,
      "edia": 333,
      "an": 334,
      ".or": 335,
      "్ర": 336,
      ".org/": 337,
      "org/": 338,
      "ped": 339,
      ".wiki": 340,
      "ia.org/": 341,
      "pedia": 342,
      ".org/wiki": 343,
      "In": 344,
      "ia.org/wiki": 345,
      "edia.org/": 346,
      ".org/wiki/": 347,
      "pedia.org/wiki": 348,
      "edia.org/wiki": 349,
      ".wikipedia": 350,
      "](https://te": 351,
      "mr": 352,
      "▁[": 353,
      ".wikipedia.org/wiki/": 354,
      "pedia.org/wiki/": 355,
      ".wikip": 356,
      "](https://hi": 357,
      "](https://te.wiki": 358,
      "edia.org/wiki/": 359,
      "](https://en": 360,
      "](https://hi.wikipedia.org/wiki/": 361,
      "](https://te.wikipedia.org/wiki/": 362,
      "mr.wikip": 363,
      "](https://en.wiki": 364,
      "▁क": 365,
      "](https://mr.wikip": 366,
      "](https://en.wikipedia": 367,
      "▁\"": 368,
      "](https://mr.wikipedia.org/wiki/": 369,
      "](https://en.wikipedia.org/wiki/": 370,
      "\")": 371,
      "ార": 372,
      "on": 373,
      "▁|": 374,
      "India": 375,
      "भार": 376,
      "ాల": 377,
      "्या": 378,
      "th": 379,
      "भारत": 380,
      "్య": 381,
      "▁प": 382,
      "er": 383,
      "▁स": 384,
      "భార": 385,
      "ारत": 386,
      "▁म": 387,
      "భారత": 388,
      "ti": 389,
      "దే": 390,
      "దేశ": 391,
      "ात": 392,
      "al": 393,
      "रा": 394,
      "స్": 395,
      "▁आ": 396,
      "ar": 397,
      "▁ప": 398,
      "र्": 399,
      "es": 400,
      "20": 401,
      "సా": 402,
      "▁व": 403,
      "ान": 404,
      "of": 405,
      "ें": 406,
      "is": 407,
      "ర్": 408,
      "या": 409,
      "the": 410,
      "న్": 411,
      "re": 412,
      "▁the": 413,
      "▁के": 414,
      "లు": 415,
      "हे": 416,
      "and": 417,
      "](https://hi.wikipedia.org/wiki/भारत": 418,
      "రా": 419,
      "स्": 420,
      "▁of": 421,
      "▁ह": 422,
      "భారతదేశ": 423,
      "om": 424,
      "्त": 425,
      "శ.": 426,
      "ाल": 427,
      "](https://en.wikipedia.org/wiki/India": 428,
      ".శ.": 429,
      "ां": 430,
      "ou": 431,
      "िक": 432,
      "లో": 433,
      "▁अ": 434,
      "as": 435,
      "సా.శ.": 436,
      "ेश": 437,
      "ci": 438,
      "▁में": 439,
      "tion": 440,
      "](https://en.wikipedia.org/wiki/India#": 441,
      "ीय": 442,
      "**": 443,
      "▁प्र": 444,
      "ri": 445,
      "▁క": 446,
      "ाच": 447,
      "త్ర": 448,
      "▁आहे": 449,
      "▁India": 450,
      "ాలు": 451,
      "▁in": 452,
      "ों": 453,
      "రి": 454,
      "देश": 455,
      "te_": 456,
      "క్": 457,
      "ic": 458,
      "ంద": 459,
      "ील": 460,
      "le": 461,
      "▁(": 462,
      "त्र": 463,
      "](https://en.wikipedia.org/wiki/India#ci": 464,
      "ని": 465,
      "▁न": 466,
      "](https://en.wikipedia.org/wiki/India#cite_": 467,
      "वि": 468,
      "▁వ": 469,
      "](https://mr.wikipedia.org/wiki/भारत": 470,
      "▁-": 471,
      "](https://hi.wikipedia.org/wiki/भारत#": 472,
      "it": 473,
      "▁भारत": 474,
      "oo": 475,
      "ना": 476,
      "ల్": 477,
      "ष्": 478,
      "ra": 479,
      "భారతదేశం": 480,
      "ंग": 481,
      "OT": 482,
      "_क": 483,
      "ంగ": 484,
      "ले": 485,
      "ch": 486,
      "▁ज": 487,
      "ac": 488,
      "▁s": 489,
      "्ष": 490,
      "▁స": 491,
      "ाम": 492,
      "201": 493,
      "▁మ": 494,
      "\n\n": 495,
      "▁and": 496,
      "▁है": 497,
      "్రా": 498,
      "िया": 499,
      "ent": 500,
      "ీయ": 501,
      "त्": 502,
      "▁p": 503,
      "▁द": 504,
      "ండ": 505,
      "ास": 506,
      "](https://hi.wikipedia.org/wiki/भारत#ci": 507,
      "ती": 508,
      "id": 509,
      "](https://hi.wikipedia.org/wiki/भारत#cite_": 510,
      "lin": 511,
      "दी": 512,
      "జ్య": 513,
      "am": 514,
      "राज": 515,
      "red": 516,
      "19": 517,
      "=1": 518,
      "▁त": 519,
      "▁c": 520,
      "न्": 521,
      "▁చ": 522,
      "भा": 523,
      "▁A": 524,
      "ి.": 525,
      "](https://mr.wikipedia.org/wiki/भारत#": 526,
      "-0": 527,
      "और": 528,
      "link": 529,
      "▁f": 530,
      "action": 531,
      "ing": 532,
      "▁ब": 533,
      "?action": 534,
      "et": 535,
      "?action=": 536,
      "ली": 537,
      "ation": 538,
      "▁की": 539,
      "\\_": 540,
      "ला": 541,
      "us": 542,
      "link=1": 543,
      "iv": 544,
      "it&": 545,
      "चे": 546,
      "ol": 547,
      "redlink=1": 548,
      "ook": 549,
      "it&redlink=1": 550,
      "ate": 551,
      "edit&redlink=1": 552,
      "ष्ट": 553,
      "at": 554,
      "्व": 555,
      "?action=edit&redlink=1": 556,
      "ची": 557,
      "▁S": 558,
      "▁b": 559,
      "▁से": 560,
      "](https://mr.wikipedia.org/wiki/भारत#ci": 561,
      ").": 562,
      "-1": 563,
      "తా": 564,
      "](https://mr.wikipedia.org/wiki/भारत#cite_": 565,
      "no": 566,
      "ము": 567,
      "ंद": 568,
      "▁t": 569,
      "▁और": 570,
      "నా": 571,
      "▁आहे.": 572,
      "_स": 573,
      "्ये": 574,
      "▁m": 575,
      "▁का": 576,
      "్ట": 577,
      "200": 578,
      "తి": 579,
      "वा": 580,
      "ist": 581,
      "्रे": 582,
      "ad": 583,
      "ता": 584,
      "సి": 585,
      "▁या": 586,
      "ag": 587,
      "త్": 588,
      "ur": 589,
      "्ट": 590,
      "ang": 591,
      "▁(సా.శ.": 592,
      "चि": 593,
      "▁C": 594,
      "च्या": 595,
      "il": 596,
      "యా": 597,
      "ने": 598,
      "78": 599,
      "▁\"भारत": 600,
      "▁రా": 601,
      "हि": 602,
      "ref": 603,
      "स्त": 604,
      "ులు": 605,
      "क्ष": 606,
      "ce": 607,
      "–సా.శ.": 608,
      "▁श": 609,
      "▁w": 610,
      "राज्य": 611,
      "▁**": 612,
      "ून": 613,
      "te-": 614,
      "ित": 615,
      "▁అ": 616,
      "द्": 617,
      "▁P": 618,
      "णि": 619,
      "[[": 620,
      "▁ప్ర": 621,
      "ष्ट्र": 622,
      "ref-": 623,
      "▁•": 624,
      "ిక": 625,
      "%A": 626,
      "note-": 627,
      "न्द": 628,
      "తం": 629,
      "▁ग": 630,
      "](https://en.wikipedia.org/wiki/India#cite_ref-": 631,
      "](https://en.wikipedia.org/wiki/India#cite_note-": 632,
      "प्र": 633,
      "]](https://en.wikipedia.org/wiki/India#cite_note-": 634,
      "षा": 635,
      "ిన": 636,
      "ंड": 637,
      "_India": 638,
      "జ్యం": 639,
      "ial": 640,
      "पु": 641,
      "జా": 642,
      "▁इ": 643,
      "_of": 644,
      "ति": 645,
      "ంచ": 646,
      "तर": 647,
      "el": 648,
      "కు": 649,
      "र्व": 650,
      "ig": 651,
      "Sou": 652,
      "ge": 653,
      "ातील": 654,
      "](https://te.wikipedia.org/wiki/భారతదేశం": 655,
      "मु": 656,
      "ul": 657,
      "పూ": 658,
      "▁अस": 659,
      "um": 660,
      "ను": 661,
      "▁d": 662,
      "भाषा": 663,
      "00": 664,
      "री": 665,
      "IS": 666,
      "ी\")": 667,
      "▁**·": 668,
      "भाष": 669,
      "Th": 670,
      "▁**·**": 671,
      "%E": 672,
      "FO": 673,
      "\"),": 674,
      "%E0": 675,
      "ro": 676,
      "मा": 677,
      "భా": 678,
      "OTE": 679,
      "▁को": 680,
      "co": 681,
      "NOTE": 682,
      "था": 683,
      "ప్ర": 684,
      "%E0%A": 685,
      "FOOT": 686,
      "ద్": 687,
      "ाज": 688,
      "FOOTNOTE": 689,
      "note": 690,
      "ింద": 691,
      "सं": 692,
      "ion": 693,
      "]](https://hi.wikipedia.org/wiki/भारत#cite_": 694,
      "▁ఉ": 695,
      "▁स्": 696,
      "978": 697,
      "]](https://hi.wikipedia.org/wiki/भारत#cite_note": 698,
      "ం:": 699,
      "▁उ": 700,
      "ter": 701,
      "](https://hi.wikipedia.org/wiki/भारत#cite_ref": 702,
      "▁ఆ": 703,
      "▁राज": 704,
      "▁l": 705,
      "णी": 706,
      "ल्": 707,
      "BN": 708,
      "▁पर": 709,
      "▁ర": 710,
      "▁सं": 711,
      "ISBN": 712,
      "\n-": 713,
      "ाव": 714,
      "em": 715,
      "▁|\n": 716,
      "ते": 717,
      "▁a": 718,
      "▁|\n|": 719,
      "मध": 720,
      "▁R": 721,
      "ड़": 722,
      "र्म": 723,
      "fi": 724,
      "▁సా": 725,
      "्यां": 726,
      "ers": 727,
      "భారతీయ": 728,
      "enti": 729,
      "మా": 730,
      "\n|": 731,
      "un": 732,
      "▁ए": 733,
      "వా": 734,
      "▁to": 735,
      "_के": 736,
      "चा": 737,
      ".\n": 738,
      "రు": 739,
      "st": 740,
      "ाद": 741,
      "వి": 742,
      "cial": 743,
      "▁है।": 744,
      "ష్ట": 745,
      "▁India\")": 746,
      "పూ.": 747,
      "com": 748,
      "ార్": 749,
      "त्य": 750,
      "er)": 751,
      "క్ష": 752,
      "▁य": 753,
      "identi": 754,
      "ces": 755,
      "స్థ": 756,
      "राष्ट्र": 757,
      "▁M": 758,
      "पू": 759,
      "identifi": 760,
      "▁[म": 761,
      "రిత్ర": 762,
      "identifier)": 763,
      "्रेणी": 764,
      "](https://te.wikipedia.org/wiki/భారతదేశం#": 765,
      "▁1": 766,
      "న్న": 767,
      "%E0%A4": 768,
      "▁h": 769,
      "ूच": 770,
      "ोक": 771,
      "res": 772,
      "_म": 773,
      "वी": 774,
      "▁B": 775,
      "err": 776,
      "jp": 777,
      "▁हो": 778,
      "The": 779,
      "श्रेणी": 780,
      "cite_": 781,
      "कार": 782,
      "tic": 783,
      "error": 784,
      "](https://te.wikipedia.org/wiki/భారతదేశం#cite_": 785,
      "ाण": 786,
      "↑](https://en.wikipedia.org/wiki/India#cite_ref-": 787,
      "గా": 788,
      "▁[↑](https://en.wikipedia.org/wiki/India#cite_ref-": 789,
      "eb": 790,
      "కి": 791,
      "िश": 792,
      "ov": 793,
      "ంట": 794,
      "Spe": 795,
      ".jp": 796,
      "10": 797,
      "श्रेणी:": 798,
      "మ్రా": 799,
      "ही": 800,
      "sia": 801,
      "विश": 802,
      "ష్ట్ర": 803,
      "▁आहेत": 804,
      "book": 805,
      "का": 806,
      "ory": 807,
      "ంత": 808,
      "ev": 809,
      "द्ध": 810,
      "s.": 811,
      "चित्र": 812,
      "Special": 813,
      "dit": 814,
      "పు": 815,
      "ाच्या": 816,
      "ir": 817,
      "हार": 818,
      "Special:": 819,
      "▁న": 820,
      "▁\"स": 821,
      "ec": 822,
      "ेत्र": 823,
      "ాన": 824,
      "ाय": 825,
      "202": 826,
      "ww": 827,
      "మి": 828,
      "we": 829,
      "fn": 830,
      "▁త": 831,
      "▁201": 832,
      "]](https://hi.wikipedia.org/wiki/भारत#cite_note-": 833,
      "భాష": 834,
      "-0)": 835,
      "](https://hi.wikipedia.org/wiki/भारत#cite_ref-": 836,
      "▁ఇ": 837,
      "▁प्रदेश": 838,
      "ity": 839,
      "పా": 840,
      "](https://mr.wikipedia.org/wiki/स": 841,
      "म्": 842,
      "పాల": 843,
      "▁र": 844,
      "ment": 845,
      "िल": 846,
      "లీ": 847,
      "](https://mr.wikipedia.org/wiki/भारत#cite_note-": 848,
      "rces": 849,
      "tr": 850,
      "]](https://mr.wikipedia.org/wiki/भारत#cite_note-": 851,
      "_in": 852,
      "web": 853,
      "స్తా": 854,
      "भारतीय": 855,
      "/978": 856,
      "_के_": 857,
      "](https://mr.wikipedia.org/wiki/भारत#cite_ref-": 858,
      "ay": 859,
      "pl": 860,
      "▁దేశ": 861,
      "पा": 862,
      "Book": 863,
      "వర్": 864,
      "Sources": 865,
      "ी](https://hi.wikipedia.org/wiki/": 866,
      "ాయ": 867,
      "वर्": 868,
      "Un": 869,
      "lo": 870,
      "Special:Book": 871,
      "िय": 872,
      "–సా.శ.1": 873,
      "के": 874,
      "▁D": 875,
      "ुर": 876,
      "Special:BookSources": 877,
      "ज़": 878,
      "మ్రాజ్యం": 879,
      "▁१": 880,
      "Special:BookSources/978": 881,
      "ం\")": 882,
      "▁वि": 883,
      "▁E": 884,
      "▁[↑": 885,
      "िळ": 886,
      "_of_": 887,
      "దేశ్": 888,
      "▁झ": 889,
      "_(": 890,
      "ाची": 891,
      "ly": 892,
      "सा": 893,
      "▁हे": 894,
      "ం](https://te.wikipedia.org/wiki/": 895,
      "वे": 896,
      "rom": 897,
      "त्त": 898,
      "ంబ": 899,
      "tu": 900,
      "టి": 901,
      "शिया": 902,
      "sh": 903,
      "),": 904,
      "-2": 905,
      "ంలో": 906,
      "im": 907,
      "స్తాన్": 908,
      "▁ध": 909,
      "\").": 910,
      "द्र": 911,
      "IT": 912,
      "▁(సా.శ.1": 913,
      "ons": 914,
      "edit": 915,
      "గు": 916,
      "िं": 917,
      "=edit": 918,
      "నే": 919,
      "age": 920,
      "్చ": 921,
      "▁\"म": 922,
      "op": 923,
      "action=edit": 924,
      "డు": 925,
      "](https://mr.wikipedia.org/wiki/म": 926,
      "angu": 927,
      "action=edit&": 928,
      "▁\"మ": 929,
      "▁झाल": 930,
      "▁N": 931,
      "జాత": 932,
      "RE": 933,
      "్రీ": 934,
      "जी": 935,
      "▁G": 936,
      "?action=edit&": 937,
      "्म": 938,
      "ITE": 939,
      "లా": 940,
      "ind": 941,
      "ంగా": 942,
      "लोक": 943,
      "ITERE": 944,
      "▁జ": 945,
      "▁g": 946,
      "డ్": 947,
      "CITERE": 948,
      "ిల్": 949,
      "स्तान": 950,
      "](https://te.wikipedia.org/wiki/మ": 951,
      "▁आहेत.": 952,
      "](https://en.wikipedia.org/wiki/India#CITERE": 953,
      "िस": 954,
      "](https://en.wikipedia.org/wiki/India#CITEREF": 955,
      "ी_": 956,
      "ुस": 957,
      "ber": 958,
      "స్త్ర": 959,
      "%E0%A4%": 960,
      "-4": 961,
      "లి": 962,
      "▁e": 963,
      "्षेत्र": 964,
      "gu": 965,
      "▁देश": 966,
      "og": 967,
      "Har": 968,
      "ింది.": 969,
      "ंद्र": 970,
      ".com": 971,
      "▁ल": 972,
      "g)": 973,
      "ल्या": 974,
      "12": 975,
      "ణా": 976,
      "तात": 977,
      "cal": 978,
      "errors": 979,
      "దక్ష": 980,
      "िल्": 981,
      "-3": 982,
      "ीन": 983,
      "ाचा": 984,
      "▁H": 985,
      "▁सा": 986,
      "ధిక": 987,
      "▁आणि": 988,
      "▁re": 989,
      "▁వి": 990,
      "199": 991,
      "కా": 992,
      "▁*": 993,
      "సియా": 994,
      "▁on": 995,
      "▁राज्य": 996,
      "▁ప్రా": 997,
      "▁th": 998,
      "श्रेणी:Har": 999,
      "జాతీయ": 1000,
      "##": 1001,
      "ts": 1002,
      "श्रेणी:Harv": 1003,
      "▁చరిత్ర": 1004,
      "नी": 1005,
      "ak": 1006,
      "▁2": 1007,
      "▁సం": 1008,
      "_A": 1009,
      "Sfn": 1010,
      "్మ": 1011,
      "for": 1012,
      "డి": 1013,
      "ुसार": 1014,
      "ry": 1015,
      "विध": 1016,
      "oun": 1017,
      "जा": 1018,
      "▁రాజ్యం": 1019,
      ".com/": 1020,
      "मन": 1021,
      "50": 1022,
      "chiv": 1023,
      "▁भाषा": 1024,
      "ంధ": 1025,
      "हर": 1026,
      "ast": 1027,
      "▁हैं": 1028,
      "వర్గ": 1029,
      "]](https://en.wikipedia.org/wiki/India#cite_note-FOOTNOTE": 1030,
      "స్త": 1031,
      "ld": 1032,
      "▁సామ్రాజ్యం": 1033,
      "chi": 1034,
      "దక్షి": 1035,
      "ern": 1036,
      "ve": 1037,
      "దీ": 1038,
      "↑](https://mr.wikipedia.org/wiki/भारत#cite_ref-": 1039,
      "▁from": 1040,
      "गर": 1041,
      "s/": 1042,
      "▁[↑](https://mr.wikipedia.org/wiki/भारत#cite_ref-": 1043,
      "ab": 1044,
      "▁भ": 1045,
      "ండి": 1046,
      "av": 1047,
      "ational": 1048,
      "स्थ": 1049,
      "ain": 1050,
      "▁भारतीय": 1051,
      "al_": 1052,
      "వర్గం:": 1053,
      "िण": 1054,
      "▁n": 1055,
      "▁[↑](https://hi.wikipedia.org/wiki/भारत#cite_ref-": 1056,
      "తర": 1057,
      "CS": 1058,
      "pg": 1059,
      "వం": 1060,
      "CS1": 1061,
      "ub": 1062,
      "▁బ": 1063,
      "वर": 1064,
      "ep": 1065,
      "ेला": 1066,
      ".jpg)": 1067,
      "▁वा": 1068,
      "calf": 1069,
      "हा": 1070,
      "b/": 1071,
      "11": 1072,
      "ట్": 1073,
      "्यात": 1074,
      ".[[": 1075,
      "ిత": 1076,
      "्ह": 1077,
      "ంది.": 1078,
      "▁भारतात": 1079,
      "od": 1080,
      "%20": 1081,
      "▁[स": 1082,
      "ंग्रे": 1083,
      "_చ": 1084,
      "्राज": 1085,
      "etcalf": 1086,
      "ది": 1087,
      "कृ": 1088,
      "up": 1089,
      "▁T": 1090,
      "पर": 1091,
      "▁(సా.శ.పూ.": 1092,
      "ग:": 1093,
      "onom": 1094,
      "वर्ग:": 1095,
      "ct": 1096,
      "▁[మ": 1097,
      "▁[ब": 1098,
      "ted": 1099,
      "▁कर": 1100,
      "▁ఎ": 1101,
      "ाम्राज": 1102,
      "ish": 1103,
      "▁([": 1104,
      "▁గ": 1105,
      "▁or": 1106,
      "िर": 1107,
      "--": 1108,
      "ivers": 1109,
      "ोल": 1110,
      "▁శ": 1111,
      "ary": 1112,
      "क्त": 1113,
      "ధ్య": 1114,
      "▁J": 1115,
      "कि": 1116,
      "ంద్ర": 1117,
      "ress": 1118,
      "▁---": 1119,
      "क्षिण": 1120,
      "ud": 1121,
      "](https://hi.wikipedia.org/wiki/म": 1122,
      "_of_India": 1123,
      "▁\"C": 1124,
      "▁ट": 1125,
      "est": 1126,
      "हिन्द": 1127,
      "ైన": 1128,
      "os": 1129,
      "-0-": 1130,
      "▁.": 1131,
      "प्रदेश": 1132,
      "▁for": 1133,
      ".in": 1134,
      "▁పే": 1135,
      "ोर": 1136,
      "rit": 1137,
      "f-": 1138,
      "ंब": 1139,
      "identifier)\")": 1140,
      "ద్ధ": 1141,
      "ma": 1142,
      "▁(identifier)\")": 1143,
      "_(identifier)": 1144,
      "ेष": 1145,
      "▁स्थ": 1146,
      "▁ar": 1147,
      "▁భారతదేశం": 1148,
      "की": 1149,
      "ंध": 1150,
      "\"))": 1151,
      "me": 1152,
      "chive": 1153,
      "ते.": 1154,
      "ust": 1155,
      "ంగ్": 1156,
      "▁मु": 1157,
      "ap": 1158,
      "▁अन": 1159,
      "ట్ట": 1160,
      "ाग": 1161,
      "▁by": 1162,
      "ाना": 1163,
      "హింద": 1164,
      "ाचे": 1165,
      "▁[A": 1166,
      "▁मो": 1167,
      "▁In": 1168,
      "▁[క": 1169,
      "ळे": 1170,
      ".j": 1171,
      "▁ఒ": 1172,
      "%E0%A4%B": 1173,
      "▁F": 1174,
      "▁क्षेत्र": 1175,
      "ాల్": 1176,
      "पट": 1177,
      "ించ": 1178,
      "▁is": 1179,
      "▁భాష": 1180,
      "तात.": 1181,
      "gh": 1182,
      "iversity": 1183,
      "▁200": 1184,
      "]](https://te.wikipedia.org/wiki/భారతదేశం#cite_": 1185,
      "List": 1186,
      "చ్చ": 1187,
      "उत्": 1188,
      "AA": 1189,
      ".g": 1190,
      "ाब": 1191,
      "_S": 1192,
      "ोत": 1193,
      "ंगाल": 1194,
      "_in_India": 1195,
      "धान": 1196,
      "]](https://te.wikipedia.org/wiki/భారతదేశం#cite_note-": 1197,
      "▁घ": 1198,
      "orld": 1199,
      "ేంద్ర": 1200,
      "▁Indian": 1201,
      "](https://te.wikipedia.org/wiki/భారతదేశం#cite_ref-": 1202,
      "राष्ट्रीय": 1203,
      "South": 1204,
      "से": 1205,
      "జీ": 1206,
      "ाहि": 1207,
      "▁[M": 1208,
      "ew": 1209,
      "भि": 1210,
      "ंत": 1211,
      "anguage": 1212,
      "श्": 1213,
      "▁\"క": 1214,
      "_न": 1215,
      "30": 1216,
      "్యా": 1217,
      "](https://mr.wikipedia.org/wiki/ब": 1218,
      "'s": 1219,
      "▁ने": 1220,
      "/వర్గం:": 1221,
      "▁\"ब": 1222,
      "](https://en.wikipedia.org/wiki/C": 1223,
      "ृत": 1224,
      "भाग": 1225,
      "india": 1226,
      "gory": 1227,
      "ंत्र": 1228,
      "▁Asia": 1229,
      "धार": 1230,
      "▁[C": 1231,
      "mpl": 1232,
      "gory:": 1233,
      "▁[S": 1234,
      "archive": 1235,
      "త్య": 1236,
      "ाप": 1237,
      "16": 1238,
      "्रा": 1239,
      "](https://te.wikipedia.org/wiki/ద": 1240,
      "▁\"क": 1241,
      "-8": 1242,
      "विशेष": 1243,
      "▁./వర్గం:": 1244,
      "▁K": 1245,
      "tar": 1246,
      "బ్": 1247,
      "ाने": 1248,
      "▁p.": 1249,
      "मी": 1250,
      "రాష్ట్ర": 1251,
      "शी": 1252,
      "लेख": 1253,
      "](https://mr.wikipedia.org/wiki/क": 1254,
      "uc": 1255,
      "▁[अ": 1256,
      "ategory:": 1257,
      "books": 1258,
      "ँच": 1259,
      "▁\"M": 1260,
      "ीय_": 1261,
      "untr": 1262,
      "क्": 1263,
      "24": 1264,
      "स्कृ": 1265,
      "ूल": 1266,
      "యు": 1267,
      "ंतर": 1268,
      "n_": 1269,
      "ांची": 1270,
      "▁\"अ": 1271,
      "ంక": 1272,
      "िव": 1273,
      "▁wi": 1274,
      "దక్షిణ": 1275,
      "▁202": 1276,
      "▁एक": 1277,
      "తంత్ర": 1278,
      "ेत": 1279,
      "goo": 1280,
      "ार्": 1281,
      "gle": 1282,
      "ेल": 1283,
      "ప్": 1284,
      "\n\n##": 1285,
      "▁[↑](https://en.wikipedia.org/wiki/India#cite_ref-FOOTNOTE": 1286,
      "lan": 1287,
      "▁[क": 1288,
      "28": 1289,
      "వే": 1290,
      "▁धर्म": 1291,
      "har": 1292,
      "▁ति": 1293,
      "ిల్లీ": 1294,
      "_आ": 1295,
      "University": 1296,
      "ాలు,": 1297,
      "चित्रपट": 1298,
      "www": 1299,
      "विशेष:": 1300,
      "](http://": 1301,
      "िल्ली": 1302,
      "▁The": 1303,
      "get": 1304,
      "ష్": 1305,
      "xt": 1306,
      "](https://en.wikipedia.org/wiki/M": 1307,
      "▁[भारत": 1308,
      "ాన్": 1309,
      "](https://mr.wikipedia.org/wiki/ग": 1310,
      "▁O": 1311,
      "▁पु": 1312,
      "తము": 1313,
      "गातील": 1314,
      "▁\"S": 1315,
      "13": 1316,
      "స్క": 1317,
      "ont": 1318,
      "▁ख": 1319,
      "google": 1320,
      "▁\"ग": 1321,
      "ng": 1322,
      "_స": 1323,
      "ER": 1324,
      "ాలు\")": 1325,
      "ले.": 1326,
      "Metcalf": 1327,
      "▁ये": 1328,
      "ism": 1329,
      "ధాన": 1330,
      "ठी": 1331,
      "id=": 1332,
      "ोग": 1333,
      "ారు": 1334,
      "▁[ग": 1335,
      "o-": 1336,
      "▁రాజ": 1337,
      "ालय": 1338,
      "17": 1339,
      "templ": 1340,
      "బె": 1341,
      "मिळ": 1342,
      "?id=": 1343,
      "▁కా": 1344,
      "_C": 1345,
      "▁19": 1346,
      "0)": 1347,
      "www.": 1348,
      "EF": 1349,
      "జి": 1350,
      "our": 1351,
      "ITER": 1352,
      "21": 1353,
      "▁W": 1354,
      "ks": 1355,
      "gov": 1356,
      "हास": 1357,
      "end": 1358,
      "ीप": 1359,
      "_చరిత్ర": 1360,
      "_भाषा": 1361,
      "](https://en.wikipedia.org/wiki/S": 1362,
      "దు": 1363,
      "](https://mr.wikipedia.org/wiki/ज": 1364,
      "▁\"आ": 1365,
      "-9": 1366,
      "target": 1367,
      "్యవ": 1368,
      "किस्तान": 1369,
      ".com/books": 1370,
      "](https://te.wikipedia.org/wiki/క": 1371,
      "int": 1372,
      "google.com/books": 1373,
      "De": 1374,
      "int:": 1375,
      "google.com/books?id=": 1376,
      "▁सूच": 1377,
      "_క": 1378,
      "maint:": 1379,
      "books.": 1380,
      "countr": 1381,
      "umm": 1382,
      "▁च": 1383,
      "ూస": 1384,
      "दा": 1385,
      "books.google.com/books?id=": 1386,
      "ITEREF": 1387,
      "పంచ": 1388,
      "▁हा": 1389,
      "aj": 1390,
      "ఢిల్లీ": 1391,
      "ष्ठ": 1392,
      "ISBN_(identifier)": 1393,
      "थि": 1394,
      "mon": 1395,
      "](https://en.wikipedia.org/wiki/ISBN_(identifier)": 1396,
      "गमन": 1397,
      "ISBN](https://en.wikipedia.org/wiki/ISBN_(identifier)": 1398,
      "ారి": 1399,
      "ाती": 1400,
      "ut": 1401,
      "26": 1402,
      "ृत्य": 1403,
      "li": 1404,
      "వు": 1405,
      "▁\"ISBN": 1406,
      "ी_स": 1407,
      "▁\"భారతీయ": 1408,
      "▁\"ज": 1409,
      "▁[ISBN](https://en.wikipedia.org/wiki/ISBN_(identifier)": 1410,
      "▁तिथि": 1411,
      "18": 1412,
      "med": 1413,
      "तमिळ": 1414,
      "▁\"Special:BookSources/978": 1415,
      "▁रो": 1416,
      "ount": 1417,
      "द्य": 1418,
      "नेक": 1419,
      "](Special:BookSources/978": 1420,
      "archive.org/": 1421,
      "–సా.శ.పూ.": 1422,
      "▁साम्राज": 1423,
      "▁[978": 1424,
      "టె": 1425,
      "मध्ये": 1426,
      "▁wh": 1427,
      "boo": 1428,
      "47": 1429,
      "▁काळ": 1430,
      "rad": 1431,
      "यु": 1432,
      "టు": 1433,
      "](https://mr.wikipedia.org/wiki/अ": 1434,
      "ens": 1435,
      "ow": 1436,
      "▁तिथि:": 1437,
      "▁ఆర్": 1438,
      "_P": 1439,
      "de": 1440,
      "▁अनेक": 1441,
      "▁ప్రాంత": 1442,
      "पी": 1443,
      "](https://books.google.com/books?id=": 1444,
      "langu": 1445,
      "ere": 1446,
      "मान": 1447,
      "▁be": 1448,
      "పాలిత": 1449,
      "40": 1450,
      "ేంద్రపాలిత": 1451,
      "](https://mr.wikipedia.org/wiki/आ": 1452,
      "▁[B": 1453,
      "90": 1454,
      "](https://te.wikipedia.org/wiki/దస్త్ర": 1455,
      "ोब": 1456,
      "ance": 1457,
      ".in/": 1458,
      "](https://te.wikipedia.org/wiki/దస్త్రం:": 1459,
      "वार": 1460,
      "ear": 1461,
      "etri": 1462,
      "జన": 1463,
      "दक्षिण": 1464,
      "*.": 1465,
      "▁./": 1466,
      "▁చరిత్ర\")": 1467,
      "ांत": 1468,
      "ck": 1469,
      "धिक": 1470,
      "నాయ": 1471,
      "▁भाषा\")": 1472,
      "per": 1473,
      "▁చె": 1474,
      "ंग्र": 1475,
      "ence": 1476,
      "धर्म": 1477,
      "india.": 1478,
      "15": 1479,
      "शास": 1480,
      "ies": 1481,
      "హి": 1482,
      "जन": 1483,
      "బి": 1484,
      "ळी": 1485,
      "inal": 1486,
      "ढ़": 1487,
      "हारा": 1488,
      "▁I": 1489,
      "_ప": 1490,
      "हाराष्ट्र": 1491,
      "cy": 1492,
      "भिगमन": 1493,
      "గో": 1494,
      "▁\"B": 1495,
      "▁अभिगमन": 1496,
      "ఖ్య": 1497,
      "▁\"A": 1498,
      "▁–": 1499,
      "नुसार": 1500,
      "ong": 1501,
      "tifi": 1502,
      "తో": 1503,
      "▁L": 1504,
      "्रोत": 1505,
      "స్కృ": 1506,
      "eved": 1507,
      "▁जन": 1508,
      "▁జాతీయ": 1509,
      "ठा": 1510,
      "▁तथा": 1511,
      "%20%20": 1512,
      "पूर्व": 1513,
      "_and": 1514,
      "▁\"भारतीय": 1515,
      "common": 1516,
      "etrieved": 1517,
      "commons/": 1518,
      "वाम": 1519,
      "▁\"P": 1520,
      "98": 1521,
      ".wikimed": 1522,
      "a\")": 1523,
      ".wikimedia.org/wiki": 1524,
      "_प्रदेश": 1525,
      "▁Retrieved": 1526,
      "](https://web": 1527,
      "pedia/": 1528,
      "](https://mr.wikipedia.org/wiki/इ": 1529,
      "35": 1530,
      "ensus": 1531,
      "ंज": 1532,
      "Ind": 1533,
      ".wikimedia.org/wikipedia/": 1534,
      "▁आशिया": 1535,
      "ture": 1536,
      "](https://web.": 1537,
      ".wikimedia.org/wikipedia/commons/": 1538,
      "▁भारताच्या": 1539,
      "38": 1540,
      "](https://web.archive.org/": 1541,
      "uplo": 1542,
      "▁जात": 1543,
      "](https://web.archive.org/web": 1544,
      "▁\"इ": 1545,
      "%2": 1546,
      "/http": 1547,
      "▁ను": 1548,
      "ategory": 1549,
      "▁हैं।": 1550,
      "హా": 1551,
      "\n\n[": 1552,
      "ys": 1553,
      "बर": 1554,
      "▁चित्रपट": 1555,
      "](https://en.wikipedia.org/wiki/B": 1556,
      "](https://web.archive.org/web/": 1557,
      "ad.wikimedia.org/wikipedia/commons/": 1558,
      "▁as": 1559,
      "upload.wikimedia.org/wikipedia/commons/": 1560,
      "शासित": 1561,
      "▁with": 1562,
      "iden": 1563,
      "](https://upload.wikimedia.org/wikipedia/commons/": 1564,
      "ीत": 1565,
      "ूर्व": 1566,
      "\")\n-": 1567,
      "पाकिस्तान": 1568,
      "all": 1569,
      "arch": 1570,
      "िन": 1571,
      "p.": 1572,
      "్యవస్థ": 1573,
      "ंडिया": 1574,
      "ummit": 1575,
      "![": 1576,
      "िंध": 1577,
      "▁st": 1578,
      "्ल": 1579,
      "▁गे": 1580,
      "ine": 1581,
      "पुस्त": 1582,
      "▁नदी": 1583,
      "](https://en.wikipedia.org/wiki/P": 1584,
      "▁కూ": 1585,
      "णा": 1586,
      "ans": 1587,
      "्रोत/978": 1588,
      "రణ": 1589,
      "मे": 1590,
      "a_": 1591,
      "▁Category:": 1592,
      "▁pp.": 1593,
      "archiv": 1594,
      "विशेष:पुस्त": 1595,
      "▁संस्कृ": 1596,
      "▁[\"": 1597,
      "](https://hi.wikipedia.org/wiki/क": 1598,
      "కిస్తాన్": 1599,
      "](https://mr.wikipedia.org/wiki/चित्र": 1600,
      "umb": 1601,
      "विशेष:पुस्तक": 1602,
      "umb/": 1603,
      "](https://mr.wikipedia.org/wiki/चित्र:": 1604,
      "▁orig": 1605,
      "वं": 1606,
      "![](https://upload.wikimedia.org/wikipedia/commons/": 1607,
      "ूळ": 1608,
      "ore": 1609,
      "thumb/": 1610,
      "मार": 1611,
      "▁जा": 1612,
      "డా": 1613,
      "▁मध": 1614,
      "బడ": 1615,
      "णे": 1616,
      "tern": 1617,
      "िका": 1618,
      "mes": 1619,
      "_and_": 1620,
      "దా": 1621,
      "त्या": 1622,
      "conom": 1623,
      "▁రాష్ట్ర": 1624,
      "पूर": 1625,
      "istory": 1626,
      "तिहास": 1627,
      "land": 1628,
      "s_": 1629,
      "▁रोजी": 1630,
      "art": 1631,
      "మే": 1632,
      "▁सर्व": 1633,
      "14": 1634,
      "पुर": 1635,
      "x-": 1636,
      "मध्य": 1637,
      "ha": 1638,
      "](https://hi.wikipedia.org/wiki/स": 1639,
      "संख": 1640,
      "ates": 1641,
      "रकार": 1642,
      "px-": 1643,
      "ाली": 1644,
      "▁[*": 1645,
      "▁లో": 1646,
      "वर्ग:CS1": 1647,
      "ian": 1648,
      "ingh": 1649,
      "ాలు](https://te.wikipedia.org/wiki/": 1650,
      "▁विविध": 1651,
      "Indian": 1652,
      "ुद्ध": 1653,
      "la": 1654,
      "![](https://upload.wikimedia.org/wikipedia/commons/thumb/": 1655,
      "CI": 1656,
      "ph": 1657,
      "विश्व": 1658,
      "by": 1659,
      "▁[P": 1660,
      "23": 1661,
      "▁ते": 1662,
      "▁original": 1663,
      "▁इस": 1664,
      "language": 1665,
      "36": 1666,
      "si": 1667,
      "▁భారత": 1668,
      "ot": 1669,
      "▁मेला": 1670,
      "▁ఈ": 1671,
      "25": 1672,
      "रालेख": 1673,
      "ाला": 1674,
      "39": 1675,
      "త్రి": 1676,
      "डू": 1677,
      "-5": 1678,
      "మిళ": 1679,
      "▁शिक": 1680,
      "▁was": 1681,
      "गु": 1682,
      "వంశ": 1683,
      "ंद्रशासित": 1684,
      "ass": 1685,
      "న్ని": 1686,
      "वात": 1687,
      "ire": 1688,
      "▁స్థ": 1689,
      "mp": 1690,
      "_में": 1691,
      "▁[అ": 1692,
      "overn": 1693,
      "ा_": 1694,
      "▁\"భారతదేశం": 1695,
      "र्थ": 1696,
      "als": 1697,
      "▁वर्": 1698,
      "नाडू": 1699,
      "late": 1700,
      "_की_स": 1701,
      "▁[ప": 1702,
      "ृष्ठ": 1703,
      "ard": 1704,
      "▁हु": 1705,
      "ర్వ": 1706,
      "तमिळनाडू": 1707,
      "ru": 1708,
      "comm": 1709,
      "web.": 1710,
      "▁\"प": 1711,
      "_మ": 1712,
      "▁१९": 1713,
      ".\n-": 1714,
      "4.": 1715,
      "▁ని": 1716,
      "कर": 1717,
      "esh": 1718,
      "పతి": 1719,
      "्रम": 1720,
      "्च": 1721,
      "తు": 1722,
      "हिम": 1723,
      "रालेखित": 1724,
      "↑](https://te.wikipedia.org/wiki/భారతదేశం#cite_ref-": 1725,
      "प्": 1726,
      "chived": 1727,
      "▁[↑](https://te.wikipedia.org/wiki/భారతదేశం#cite_ref-": 1728,
      "27": 1729,
      "](https://hi.wikipedia.org/wiki/अ": 1730,
      "gov.in": 1731,
      "rchived": 1732,
      "स्क": 1733,
      "national": 1734,
      "▁प्रज": 1735,
      "ages": 1736,
      "్రి": 1737,
      "टी": 1738,
      "ort": 1739,
      "-10": 1740,
      "ులు](https://te.wikipedia.org/wiki/": 1741,
      "omm": 1742,
      "ध्य": 1743,
      "▁రై": 1744,
      "ical": 1745,
      "ंग्रेज़": 1746,
      "_భాష": 1747,
      "न\")": 1748,
      "ff": 1749,
      "्री": 1750,
      "▁స్": 1751,
      "▁२": 1752,
      "](https://en.wikipedia.org/wiki/A": 1753,
      "హిందూ": 1754,
      "▁[इ": 1755,
      "▁\"E": 1756,
      "▁भी": 1757,
      "ఫ్": 1758,
      "1.": 1759,
      "ज्": 1760,
      "▁[బ": 1761,
      "▁University": 1762,
      "▁కాల": 1763,
      "्षण": 1764,
      "PA": 1765,
      "_भारत": 1766,
      "▁भाग": 1767,
      "oi": 1768,
      "▁\"అ": 1769,
      "▁वे": 1770,
      "ord": 1771,
      "](https://en.wikipedia.org/wiki/E": 1772,
      "थान": 1773,
      "న్నాయ": 1774,
      "ली.": 1775,
      "emp": 1776,
      "▁[స": 1777,
      "मुद्र": 1778,
      "ich": 1779,
      "िट": 1780,
      "Cate": 1781,
      "37": 1782,
      "ద్ర": 1783,
      "outh": 1784,
      "Ste": 1785,
      ".jpg)](https://te.wikipedia.org/wiki/దస్త్రం:": 1786,
      "▁शिक्षण": 1787,
      "▁ex": 1788,
      "Singh": 1789,
      "▁ప్రదేశ్": 1790,
      "eral": 1791,
      "ुख": 1792,
      "Category": 1793,
      "ank": 1794,
      "Stein": 1795,
      "ర్య": 1796,
      "▁\"T": 1797,
      "](https://hi.wikipedia.org/wiki/ब": 1798,
      "న్నాయి.": 1799,
      "उत्तर": 1800,
      "साँच": 1801,
      "▁\"ప": 1802,
      "ौद्ध": 1803,
      "_Asia": 1804,
      "▁అధిక": 1805,
      "▁असे": 1806,
      "olog": 1807,
      "फ़": 1808,
      "Category:": 1809,
      "ill": 1810,
      "మె": 1811,
      "वीप": 1812,
      "▁an": 1813,
      "](https://hi.wikipedia.org/wiki/भारत_में": 1814,
      "▁ల": 1815,
      "▁काही": 1816,
      "▁सम": 1817,
      "▁\"స": 1818,
      "▁त्या": 1819,
      "2010": 1820,
      "त्तर": 1821,
      "త్త": 1822,
      "ासून": 1823,
      "ile": 1824,
      "▁हि": 1825,
      "ప్రదేశ్": 1826,
      "ुज": 1827,
      "pg=": 1828,
      "య్య": 1829,
      "▁ले": 1830,
      "&pg=": 1831,
      ".jpg": 1832,
      "▁నుండి": 1833,
      "वामान": 1834,
      "ूर": 1835,
      "▁\"బ": 1836,
      "und": 1837,
      "భూ": 1838,
      "ani": 1839,
      "मिल": 1840,
      "ఆసియా": 1841,
      "▁उत्": 1842,
      "2018": 1843,
      "-7": 1844,
      "ai": 1845,
      "माण": 1846,
      "hm": 1847,
      "रु": 1848,
      "titu": 1849,
      "les": 1850,
      "ंदी": 1851,
      "32": 1852,
      "హార": 1853,
      "डिया": 1854,
      "s,": 1855,
      "2009": 1856,
      "్](https://te.wikipedia.org/wiki/": 1857,
      "ख्य": 1858,
      "overnment": 1859,
      "▁[प": 1860,
      "](https://te.wikipedia.org/wiki/బ": 1861,
      "ction": 1862,
      "120": 1863,
      "▁नाव": 1864,
      "indu": 1865,
      "uage": 1866,
      "ోర్": 1867,
      "▁साहि": 1868,
      "ite": 1869,
      "▁सरकार": 1870,
      "మైన": 1871,
      "▁[ज": 1872,
      "▁\"D": 1873,
      "్మీ": 1874,
      "ाट": 1875,
      "2006": 1876,
      "_की_सूच": 1877,
      "ो.": 1878,
      ")[[": 1879,
      ")\n\n": 1880,
      "ూర్": 1881,
      "स.": 1882,
      "](https://en.wikipedia.org/wiki/D": 1883,
      "▁\"ఇ": 1884,
      "व्य": 1885,
      "▁&": 1886,
      ".jpg/": 1887,
      "▁संस्कृती": 1888,
      "ss": 1889,
      "▁तक": 1890,
      "త్తర": 1891,
      "tem": 1892,
      "ा:": 1893,
      "National": 1894,
      "रे": 1895,
      "▁it": 1896,
      "/http://": 1897,
      "▁\"భారత": 1898,
      "ंगा": 1899,
      "ations": 1900,
      "▁మొ": 1901,
      "स्त्र": 1902,
      "▁v": 1903,
      "▁झाले": 1904,
      "ford": 1905,
      "हु": 1906,
      "శ్మీ": 1907,
      "▁ही": 1908,
      "ries": 1909,
      "ారు.": 1910,
      "लोकसंख": 1911,
      "నాగ": 1912,
      "omp": 1913,
      "ैद": 1914,
      "ూస:": 1915,
      "](https://mr.wikipedia.org/wiki/भारतीय": 1916,
      "oc": 1917,
      "पाल": 1918,
      "ులు\")": 1919,
      "&pg=PA": 1920,
      "साम": 1921,
      "ubl": 1922,
      "తమిళ": 1923,
      "media": 1924,
      "](https://hi.wikipedia.org/wiki/भारतीय_": 1925,
      "ణి": 1926,
      "कड": 1927,
      "9.": 1928,
      "्ड": 1929,
      "లో](https://te.wikipedia.org/wiki/": 1930,
      "▁\"G": 1931,
      ".gov": 1932,
      ".wikim": 1933,
      "oli": 1934,
      "PP": 1935,
      "▁are": 1936,
      "ियों": 1937,
      "భారత_": 1938,
      "श्चि": 1939,
      "](https://en.wikipedia.org/wiki/T": 1940,
      "▁प्रदेश\")": 1941,
      "anguages": 1942,
      "e_": 1943,
      "aki": 1944,
      "ive": 1945,
      "shit": 1946,
      "xford": 1947,
      "सम": 1948,
      "2-": 1949,
      "शा": 1950,
      "ll": 1951,
      "▁ऑ": 1952,
      "](https://hi.wikipedia.org/wiki/प": 1953,
      "శా": 1954,
      "▁वै": 1955,
      "ath": 1956,
      "రిజ": 1957,
      "द्या": 1958,
      "*](https://books.google.com/books?id=": 1959,
      "▁[ఇ": 1960,
      "tive": 1961,
      "క్కు": 1962,
      "म्म": 1963,
      "ous": 1964,
      "gn": 1965,
      "▁\"List": 1966,
      "पंज": 1967,
      "▁\"N": 1968,
      "ूप": 1969,
      "ైనా": 1970,
      "पंजाब": 1971,
      "▁\"R": 1972,
      "ीं": 1973,
      "▁\"జ": 1974,
      "eng": 1975,
      "गण": 1976,
      "](https://web.archive.org/web/201": 1977,
      "्ञ": 1978,
      "▁V": 1979,
      "]](https://hi.wikipedia.org/wiki/भारत#cite_note-FOOTNOTE": 1980,
      "రాజ": 1981,
      "/https://": 1982,
      "](https://en.wikipedia.org/wiki/List": 1983,
      "ओं": 1984,
      "](https://te.wikipedia.org/wiki/ఇ": 1985,
      "स्थान": 1986,
      "udd": 1987,
      "ther": 1988,
      "दे": 1989,
      "stan": 1990,
      "▁किया": 1991,
      "స్కృతి": 1992,
      "्हण": 1993,
      "▁Press": 1994,
      "रब": 1995,
      "ప్రధాన": 1996,
      "पती": 1997,
      "amb": 1998,
      "Stein19": 1999,
      "్\")": 2000,
      ".p": 2001,
      "ach": 2002,
      "Stein1998": 2003,
      "4)": 2004,
      "ग्": 2005,
      "](https://en.wikipedia.org/wiki/R": 2006,
      "Singh2009": 2007,
      "ండు": 2008,
      "ोन": 2009,
      "tics": 2010,
      "्स": 2011,
      "ikshit": 2012,
      "IC": 2013,
      "_के_राज्य": 2014,
      "▁\"చ": 2015,
      "▁राज्ये": 2016,
      "px": 2017,
      "ंदिर": 2018,
      "▁చూ": 2019,
      "ाणी": 2020,
      "](https://en.wikipedia.org/wiki/G": 2021,
      "TE": 2022,
      "▁[G": 2023,
      "वन": 2024,
      "వంశం": 2025,
      "ऱ्या": 2026,
      "70": 2027,
      "नाम": 2028,
      "120px-": 2029,
      "ांग": 2030,
      "34": 2031,
      "▁[జ": 2032,
      "्यान": 2033,
      "▁language": 2034,
      "GD": 2035,
      "▁गण": 2036,
      "_s": 2037,
      "▁वर्ष": 2038,
      "rid": 2039,
      "्वीप": 2040,
      "▁పా": 2041,
      "▁मान": 2042,
      "▁*[": 2043,
      ".n": 2044,
      "▁వా": 2045,
      "स्ट": 2046,
      "opul": 2047,
      "ज्ञ": 2048,
      "mb": 2049,
      "ांच्या": 2050,
      "](https://en.wikipedia.org/wiki/N": 2051,
      "_प्र": 2052,
      "countries": 2053,
      "च्": 2054,
      "hin": 2055,
      "_की_सूची": 2056,
      "▁తే": 2057,
      "ext": 2058,
      "ख्या": 2059,
      "త్వ": 2060,
      "खंड": 2061,
      "ef": 2062,
      "न्न": 2063,
      "బా": 2064,
      "_M": 2065,
      "▁सूची\")": 2066,
      "ळव": 2067,
      "tein": 2068,
      "ंजा": 2069,
      "with": 2070,
      "ीम": 2071,
      "▁which": 2072,
      "ंजाब": 2073,
      "మ్మ": 2074,
      "मधील": 2075,
      "▁[D": 2076,
      "▁खाना": 2077,
      "india.gov.in": 2078,
      "_आणि": 2079,
      "ope": 2080,
      "ुल": 2081,
      "Re": 2082,
      "राण": 2083,
      "चीन": 2084,
      "](https://te.wikipedia.org/wiki/స": 2085,
      "29": 2086,
      "▁गया": 2087,
      "oth": 2088,
      "▁सर": 2089,
      "sher": 2090,
      "](https://hi.wikipedia.org/wiki/भारत_क": 2091,
      "_సా": 2092,
      "▁पद": 2093,
      "ral": 2094,
      "54": 2095,
      "ంగీ": 2096,
      "▁स्थाप": 2097,
      "BA": 2098,
      "▁राज्यों": 2099,
      "▁క్రీ": 2100,
      "दल": 2101,
      "](https://en.wikipedia.org/wiki/List_of_": 2102,
      "ेंद्र": 2103,
      "▁नि": 2104,
      "](https://www.": 2105,
      "mplate": 2106,
      "\n\nभारत": 2107,
      "बसे": 2108,
      "నికి": 2109,
      "भू": 2110,
      "▁[N": 2111,
      "ంప": 2112,
      "ांक": 2113,
      "▁[R": 2114,
      "न्द्र": 2115,
      "నాభా": 2116,
      "▁मिळ": 2117,
      "onstitu": 2118,
      "\"))\n": 2119,
      "ల్ల": 2120,
      "▁2007": 2121,
      "BAJ": 2122,
      "▁[मूल": 2123,
      "బెంగ": 2124,
      "▁म्हण": 2125,
      "QBAJ": 2126,
      "बंध": 2127,
      "▁భాష\")": 2128,
      "▁पू": 2129,
      "orth": 2130,
      "GDP": 2131,
      "वातंत्र": 2132,
      "RIC": 2133,
      "▁no": 2134,
      "ఖండ": 2135,
      "_R": 2136,
      "కో": 2137,
      "नाट": 2138,
      "gion": 2139,
      "चल": 2140,
      "▁[![](https://upload.wikimedia.org/wikipedia/commons/thumb/": 2141,
      "तु": 2142,
      "▁India's": 2143,
      "ీ](https://te.wikipedia.org/wiki/": 2144,
      "01": 2145,
      "▁तर": 2146,
      "_T": 2147,
      "▁[చ": 2148,
      "▁[न": 2149,
      "riti": 2150,
      "▁సి": 2151,
      "upload": 2152,
      "रालेखित।": 2153,
      "నై": 2154,
      "स्ल": 2155,
      "_B": 2156,
      "▁पुरालेखित।": 2157,
      "దిన": 2158,
      "2.": 2159,
      "బితా": 2160,
      "ार्थ": 2161,
      "igh": 2162,
      "ब्": 2163,
      "జాబితా": 2164,
      "▁भू": 2165,
      "ountries": 2166,
      "hel": 2167,
      "▁येथ": 2168,
      "▁South": 2169,
      "▁శా": 2170,
      "मुळे": 2171,
      ".wikimedia": 2172,
      "▁सबसे": 2173,
      "క్‌": 2174,
      "ामु": 2175,
      "▁\"H": 2176,
      "ారం": 2177,
      "_देश": 2178,
      "▁has": 2179,
      "चित्र:": 2180,
      "గణ": 2181,
      "](https://mr.wikipedia.org/wiki/भारतीय_": 2182,
      "-0-19": 2183,
      "77": 2184,
      "▁नृत्य": 2185,
      "▁that": 2186,
      "క్క": 2187,
      "▁साम्राज्य": 2188,
      "ited": 2189,
      "जरा": 2190,
      "ib": 2191,
      "िकि": 2192,
      "rou": 2193,
      ")](https://hi.wikipedia.org/wiki/": 2194,
      "▁प्रकार": 2195,
      "out": 2196,
      "com/": 2197,
      "▁हवामान": 2198,
      "▁ఒక": 2199,
      "ाचीन": 2200,
      "AAQBAJ": 2201,
      "_templ": 2202,
      "2)": 2203,
      "हाय": 2204,
      "MetcalfMetcalf": 2205,
      "स्था": 2206,
      "చల్": 2207,
      "दार": 2208,
      "upload.wikimedia": 2209,
      "क्ति": 2210,
      "▁ము": 2211,
      "_नदी": 2212,
      "commons": 2213,
      "ेव": 2214,
      "ियाँ": 2215,
      "▁వ్యవస్థ": 2216,
      "िंधू": 2217,
      "ark": 2218,
      "7.": 2219,
      "b.": 2220,
      "extra": 2221,
      "nd": 2222,
      "ैन": 2223,
      "1)": 2224,
      "▁यादी": 2225,
      "▁ch": 2226,
      "errors\"))\n": 2227,
      "సిన": 2228,
      "▁प्रजाती": 2229,
      ".org/wikipedia/": 2230,
      "▁[భారతీయ": 2231,
      "१९": 2232,
      "upload.wikimedia.org/wikipedia/": 2233,
      "opulation": 2234,
      "ara": 2235,
      "_G": 2236,
      "।[[": 2237,
      "పాకిస్తాన్": 2238,
      "▁स्थान": 2239,
      "thumb": 2240,
      "▁ఉంది.": 2241,
      "ुरू": 2242,
      "▁[E": 2243,
      "▁errors\"))\n": 2244,
      "▁తేదీ": 2245,
      "दिल्ली": 2246,
      "67": 2247,
      "▁[उ": 2248,
      "ార్ట": 2249,
      "▁r": 2250,
      "](https://hi.wikipedia.org/wiki/भारत#C": 2251,
      "ార్టీ": 2252,
      "्रिट": 2253,
      "](https://upload.wikimedia.org/wikipedia/": 2254,
      "▁जिस": 2255,
      "▁[భారత": 2256,
      "/thumb": 2257,
      "प्त": 2258,
      "श्म": 2259,
      "territ": 2260,
      "help": 2261,
      "షు": 2262,
      "▁टक्": 2263,
      "ition": 2264,
      "▁([help": 2265,
      "w.": 2266,
      "ile:": 2267,
      "ेर": 2268,
      "ముంబ": 2269,
      "श्चिम": 2270,
      "/thumb/": 2271,
      "ినల్": 2272,
      "ाचल": 2273,
      "రిజినల్": 2274,
      "3.": 2275,
      "▁ఒరిజినల్": 2276,
      "सेच": 2277,
      "ology": 2278,
      "▁प्रा": 2279,
      "\"](https://": 2280,
      "त्ता": 2281,
      "ah": 2282,
      "ate_": 2283,
      "▁ఉన్న": 2284,
      "तरा": 2285,
      "RICS": 2286,
      "\\_errors": 2287,
      "చే": 2288,
      "डो": 2289,
      "File:": 2290,
      "ాలయ": 2291,
      "0%": 2292,
      "ద్ద": 2293,
      "च्च": 2294,
      "](https://te.wikipedia.org/wiki/భారతీయ": 2295,
      "ानुसार": 2296,
      "..": 2297,
      "ం?action=edit&redlink=1": 2298,
      "▁लोक": 2299,
      "▁साथ": 2300,
      "ండో": 2301,
      "](https://en.wikipedia.org/wiki/H": 2302,
      "ticles": 2303,
      "ex": 2304,
      "_सं": 2305,
      "యన్": 2306,
      "ांध": 2307,
      "](https://hi.wikipedia.org/wiki/भारत_में_": 2308,
      "ond": 2309,
      "ण्ड": 2310,
      "ెల": 2311,
      "commons/thumb/": 2312,
      "](https://hi.wikipedia.org/wiki/भारत#CITEREF": 2313,
      "▁\"భారతదేశంలో": 2314,
      "हाय्य": 2315,
      "ult": 2316,
      "no-": 2317,
      "sland": 2318,
      "▁आधार": 2319,
      "he": 2320,
      "राजस्थान": 2321,
      "%2C": 2322,
      "▁सि": 2323,
      "్రె": 2324,
      "ागर": 2325,
      "amil": 2326,
      "errors?action=edit&redlink=1": 2327,
      "స్థాన్": 2328,
      "ओड": 2329,
      "gen": 2330,
      "and\\_": 2331,
      "\\_errors\n": 2332,
      "India_": 2333,
      ".wikimedia.org/wikipedia/commons/thumb/": 2334,
      "ost": 2335,
      "▁మధ్య": 2336,
      "ad.wikimedia.org/wikipedia/commons/thumb/": 2337,
      "](https://upload.wikimedia.org/wikipedia/commons/thumb/": 2338,
      "▁./श्रेणी:Harv": 2339,
      "్చి": 2340,
      "and\\_Sfn": 2341,
      "upload.wikimedia.org/wikipedia/commons/thumb/": 2342,
      "▁error": 2343,
      "నిస్తాన్": 2344,
      "सद": 2345,
      "-6": 2346,
      "arv": 2347,
      "▁तसेच": 2348,
      "](File:": 2349,
      "▁sfn": 2350,
      "es/": 2351,
      ").\n": 2352,
      "▁templ": 2353,
      "pr": 2354,
      "▁[आ": 2355,
      "▁[Archived": 2356,
      "▁template": 2357,
      "శ్చి": 2358,
      "▁**[": 2359,
      "s\")": 2360,
      "Sfn_templ": 2361,
      "ంధీ": 2362,
      "%E0%A4%A": 2363,
      "ange": 2364,
      "ate_errors?action=edit&redlink=1": 2365,
      "మ్మూ": 2366,
      "्रिटिश": 2367,
      "ign": 2368,
      "▁Sfn": 2369,
      "▁చూసిన": 2370,
      "ration": 2371,
      "target:": 2372,
      "](https://te.wikipedia.org/wiki/భారతదేశంలో": 2373,
      "▁[T": 2374,
      "cl": 2375,
      "1947": 2376,
      "ुजर": 2377,
      "mpire": 2378,
      "Ro": 2379,
      "▁pro": 2380,
      "\\_no-": 2381,
      "రీ": 2382,
      "ावर": 2383,
      "▁[Archived](https://web.archive.org/web/": 2384,
      "జీని": 2385,
      "▁होता": 2386,
      "▁[H": 2387,
      "▁\"భారతదేశ": 2388,
      "▁यां": 2389,
      "2011": 2390,
      "गढ": 2391,
      "5.": 2392,
      "Sfn_template_errors?action=edit&redlink=1": 2393,
      "▁పేజీని": 2394,
      "▁प्राचीन": 2395,
      "▁te": 2396,
      "_and_Sfn_template_errors?action=edit&redlink=1": 2397,
      "▁ఉన్నాయి.": 2398,
      "](https://en.wikipedia.org/wiki/India#cite_ref-FOOTNOTE": 2399,
      "श्रेणी:Harv_and_Sfn_template_errors?action=edit&redlink=1": 2400,
      "▁సామ్రాజ్యం](https://te.wikipedia.org/wiki/": 2401,
      "▁राष्ट्र": 2402,
      "_D": 2403,
      "target\\_errors\n": 2404,
      "\"):": 2405,
      "र्य": 2406,
      "\\_no-target\\_errors\n": 2407,
      "వరి": 2408,
      "केंद्रशासित": 2409,
      "rav": 2410,
      "and\\_Sfn\\_no-target\\_errors\n": 2411,
      "▁తేదీ:": 2412,
      "ण्यात": 2413,
      "](https://hi.wikipedia.org/wiki/श्रेणी:Harv_and_Sfn_template_errors?action=edit&redlink=1": 2414,
      "ిన్న": 2415,
      "नि": 2416,
      ")](File:": 2417,
      "▁([help](https://hi.wikipedia.org/wiki/श्रेणी:Harv_and_Sfn_template_errors?action=edit&redlink=1": 2418,
      "](https://te.wikipedia.org/wiki/జ": 2419,
      "to": 2420,
      "याल": 2421,
      "con": 2422,
      "डा": 2423,
      "ke": 2424,
      "web/": 2425,
      "▁उप": 2426,
      "qu": 2427,
      "▁target:": 2428,
      "ప్రపంచ": 2429,
      "ree": 2430,
      "आई": 2431,
      "web.archive": 2432,
      "_N": 2433,
      "▁\"श्रेणी:Harv": 2434,
      "with\\_": 2435,
      "▁इतिहास": 2436,
      "erv": 2437,
      "्वर": 2438,
      "▁సంస్కృతి": 2439,
      ".jpg)](https://mr.wikipedia.org/wiki/चित्र:": 2440,
      "iss": 2441,
      "▁संघ": 2442,
      "विधान": 2443,
      "South_Asia": 2444,
      "ob": 2445,
      "ंबई": 2446,
      "-p": 2447,
      "60": 2448,
      "▁error:": 2449,
      "▁De": 2450,
      "शि": 2451,
      "ty": 2452,
      "▁./श्रेणी:Harv\\_": 2453,
      ".org/web/": 2454,
      "ामी": 2455,
      "ame": 2456,
      "▁./श्रेणी:Harv\\_and\\_Sfn\\_no-target\\_errors\n": 2457,
      "▁మార్": 2458,
      "▁प्रमाण": 2459,
      "over": 2460,
      "▁था": 2461,
      ")\n-": 2462,
      "](https://hi.wikipedia.org/wiki/उ": 2463,
      "బడింది.": 2464,
      "स्व": 2465,
      "ta": 2466,
      "श्मी": 2467,
      "\\_with\\_": 2468,
      "%E0%A4%BE": 2469,
      "arg": 2470,
      "▁CITEREF": 2471,
      "▁ओ": 2472,
      "any": 2473,
      "ंगीत": 2474,
      "31": 2475,
      "రియా": 2476,
      "▁होते.": 2477,
      "▁cent": 2478,
      ".jpg/120px-": 2479,
      "nic": 2480,
      "▁विश्व": 2481,
      "▁maint:": 2482,
      "usic": 2483,
      "्ला": 2484,
      "web.archive.org/web/": 2485,
      "▁मुख्य": 2486,
      "ritish": 2487,
      "ెలు": 2488,
      "ंग्रजी": 2489,
      "ric": 2490,
      "ata": 2491,
      "िक्": 2492,
      "cont": 2493,
      "షన్": 2494,
      "0px-": 2495,
      "▁[2": 2496,
      "census": 2497,
      "र्भ": 2498,
      "_b": 2499,
      "वरी": 2500,
      "దీవ": 2501,
      "_या": 2502,
      "inist": 2503,
      "▁\"उ": 2504,
      "▁20": 2505,
      "_यादी": 2506,
      "duc": 2507,
      "तंत्र": 2508,
      "రే": 2509,
      "ties": 2510,
      "plo": 2511,
      "▁కూడా": 2512,
      "▁\"Indian": 2513,
      "▁కు": 2514,
      "ीर": 2515,
      "econom": 2516,
      "्यट": 2517,
      "ముంబై": 2518,
      "रत": 2519,
      "conomy": 2520,
      "గాంధీ": 2521,
      "ंदर्भ": 2522,
      "▁हिन्द": 2523,
      "శ్చిమ": 2524,
      "10.": 2525,
      "तमिल": 2526,
      "▁వచ్చ": 2527,
      "▁ला": 2528,
      "ana": 2529,
      "వీ": 2530,
      "aste": 2531,
      "](https://te.wikipedia.org/wiki/అ": 2532,
      "५०": 2533,
      "ines": 2534,
      "oogle": 2535,
      "ం\"),": 2536,
      "▁पृष्ठ": 2537,
      "196": 2538,
      "▁टक्के": 2539,
      "▁\"K": 2540,
      "गढ़": 2541,
      "కై": 2542,
      "▁పార్టీ": 2543,
      "hand": 2544,
      "క్య": 2545,
      ")\")": 2546,
      "22": 2547,
      "▁[సి": 2548,
      "ूटी": 2549,
      "United": 2550,
      "\")**": 2551,
      "isation": 2552,
      "oogle.com/books": 2553,
      "ఆఫ్": 2554,
      "वातंत्र्य": 2555,
      "46": 2556,
      ".google.com/books": 2557,
      "శ్రీ": 2558,
      "bot": 2559,
      ".google.com/books?id=": 2560,
      "ముద్ర": 2561,
      "\n\n[![](https://upload.wikimedia.org/wikipedia/commons/thumb/": 2562,
      "albot": 2563,
      "న్‌": 2564,
      "[[२": 2565,
      "▁[1": 2566,
      "त्ताक": 2567,
      "au": 2568,
      "▁పరి": 2569,
      "्यांची": 2570,
      "▁199": 2571,
      "స్సా": 2572,
      "्यानमार": 2573,
      "▁pe": 2574,
      "▁మార్గ": 2575,
      "▁[K": 2576,
      "युक्त": 2577,
      "48": 2578,
      "ater": 2579,
      "स्कृत": 2580,
      "▁చెయ్య": 2581,
      "\"\n": 2582,
      "ज्य": 2583,
      "దాయ": 2584,
      "चिन्": 2585,
      "row": 2586,
      "भी": 2587,
      "45": 2588,
      "ख्": 2589,
      "](https://en.wikipedia.org/wiki/K": 2590,
      "▁अधिक": 2591,
      "▁ఏ": 2592,
      "3)": 2593,
      "ంత్రి": 2594,
      "](https://mr.wikipedia.org/wiki/न": 2595,
      "lection": 2596,
      "में": 2597,
      "Harv": 2598,
      "▁इतर": 2599,
      "ese": 2600,
      ".jpg)\n-": 2601,
      "RC": 2602,
      "▁बाद": 2603,
      "నేపాల": 2604,
      ".स.": 2605,
      "ury": 2606,
      "ों_की_सूची": 2607,
      "షి": 2608,
      "▁ड": 2609,
      "▁--": 2610,
      "्वार": 2611,
      "సు": 2612,
      "raph": 2613,
      "ంగీతం": 2614,
      "िझ": 2615,
      "alth": 2616,
      "▁मोठ": 2617,
      "evel": 2618,
      "df": 2619,
      "▁పేరు": 2620,
      "Asher": 2621,
      "्राज्य": 2622,
      "కత": 2623,
      "▁झाला": 2624,
      "Oxford": 2625,
      "htm": 2626,
      "లంక": 2627,
      "_E": 2628,
      "िल्ल": 2629,
      "జ్": 2630,
      "▁पूर्व": 2631,
      "ublic": 2632,
      "_వ": 2633,
      "\n\n###": 2634,
      "ज्ञान": 2635,
      "onstitution": 2636,
      "bo": 2637,
      "ూర్పు": 2638,
      "र्नाट": 2639,
      "ulture": 2640,
      "](https://u": 2641,
      "▁కేంద్రపాలిత": 2642,
      "▁its": 2643,
      "thno": 2644,
      "▁बहु": 2645,
      "led": 2646,
      "హద": 2647,
      "ंट": 2648,
      "2007": 2649,
      "ड़ा": 2650,
      "र्नाटक": 2651,
      "▁ri": 2652,
      "▁అధికార": 2653,
      "▁आज": 2654,
      "MetcalfMetcalf2006": 2655,
      "్రిటి": 2656,
      "▁अर्थ": 2657,
      "6.": 2658,
      "म्ब": 2659,
      "Ar": 2660,
      "▁दिल्ली": 2661,
      "▁2011": 2662,
      "mund": 2663,
      "▁మా": 2664,
      ".jpg/25": 2665,
      "ail": 2666,
      "సభ": 2667,
      ".jpg/250px-": 2668,
      "tein2010": 2669,
      "▁దేశాల": 2670,
      "मुंबई": 2671,
      "▁\"The": 2672,
      "ad.wiki": 2673,
      "00)": 2674,
      "यं": 2675,
      "AARC": 2676,
      "ad.wikim": 2677,
      "ెద్ద": 2678,
      "ठार": 2679,
      "pg/": 2680,
      "do": 2681,
      "Stein2010": 2682,
      "2004": 2683,
      "▁చే": 2684,
      "ृष्ट": 2685,
      "ue": 2686,
      "▁कार": 2687,
      "స్తు": 2688,
      "▁केले": 2689,
      "▁[![": 2690,
      "▁शास": 2691,
      "ంగ్లా": 2692,
      "▁\"न": 2693,
      "if": 2694,
      "एं": 2695,
      "ंच": 2696,
      "inent": 2697,
      "ad.wikimedia.org/wiki": 2698,
      "టా": 2699,
      "▁पुर": 2700,
      "▁were": 2701,
      "pedia/commons/": 2702,
      "▁భాషలు": 2703,
      "[[१": 2704,
      "AAQBAJ&pg=PA": 2705,
      "▁[भारतीय": 2706,
      "గర": 2707,
      "डी": 2708,
      "-1)": 2709,
      "Rother": 2710,
      "दिक": 2711,
      "Rothermund": 2712,
      "बे": 2713,
      "▁పు": 2714,
      "ासत्ताक": 2715,
      "tical": 2716,
      "▁साम": 2717,
      "ated": 2718,
      "▁\"సి": 2719,
      "ridge": 2720,
      "pload.wikimedia.org/wikipedia/commons/": 2721,
      "రో": 2722,
      "Indo-": 2723,
      "నీ": 2724,
      "se": 2725,
      "](https://upload.wikimedia.org/wikipedia/commons/thumb": 2726,
      "ంగ్లాదేశ్": 2727,
      "▁होता.": 2728,
      "_p": 2729,
      "_ప్రా": 2730,
      "ंग्ल": 2731,
      "odern": 2732,
      "వాతంత్ర": 2733,
      "▁at": 2734,
      "ాలు\n\n": 2735,
      "go": 2736,
      "_राज": 2737,
      "\")\n\n": 2738,
      "_और": 2739,
      "కైవు": 2740,
      "त्त्": 2741,
      "uring": 2742,
      "Kul": 2743,
      "▁చెయ్యబడింది.": 2744,
      "ांचा": 2745,
      "radesh": 2746,
      "Kulke": 2747,
      "uth": 2748,
      "िशा": 2749,
      "ograph": 2750,
      "ic.in/": 2751,
      "రాజ్య": 2752,
      "▁इंडिया": 2753,
      "old": 2754,
      ".nic.in/": 2755,
      "ము\")": 2756,
      "िक्की": 2757,
      "▁5": 2758,
      "▁రాజ్య": 2759,
      "शास्त्र": 2760,
      "](http://www.": 2761,
      "▁फ": 2762,
      "por": 2763,
      "▁यह": 2764,
      "టక": 2765,
      "म्मू": 2766,
      "_4": 2767,
      "ho": 2768,
      "ांगला": 2769,
      "ati": 2770,
      "▁[↑](https://hi.wikipedia.org/wiki/भारत#cite_ref": 2771,
      "త్స": 2772,
      "ound": 2773,
      "▁మతము": 2774,
      "ंदि": 2775,
      "▁rel": 2776,
      "33": 2777,
      "World": 2778,
      "_स्रोत/978": 2779,
      "_సామ్రాజ్యం": 2780,
      "व्यव": 2781,
      ".jpg)](File:": 2782,
      "▁लि": 2783,
      "వరణ": 2784,
      "_language": 2785,
      ")](https://hi.wikipedia.org/wiki/चित्र:": 2786,
      "▁వ్యా": 2787,
      "▁साहित्य": 2788,
      "doi": 2789,
      "వాతంత్ర్య": 2790,
      "पश्चिम": 2791,
      "igion": 2792,
      "ది.": 2793,
      "indi": 2794,
      "▁स्रोत/978": 2795,
      "తావరణ": 2796,
      "संदर्भ": 2797,
      "▁[L": 2798,
      "](https://hi.wikipedia.org/wiki/भारत_के_": 2799,
      "त्रि": 2800,
      "\").\n-": 2801,
      "\"](https://web.archive.org/web/": 2802,
      "cogn": 2803,
      "mer": 2804,
      "▁ఇతర": 2805,
      "cogni": 2806,
      "akistan": 2807,
      "▁ఆర్కైవు": 2808,
      "दीव": 2809,
      "](https://hi.wikipedia.org/wiki/ISBN": 2810,
      "్వ": 2811,
      "्यांच्या": 2812,
      "na": 2813,
      "ISBN](https://hi.wikipedia.org/wiki/ISBN": 2814,
      "ुजरात": 2815,
      "ork": 2816,
      "_के_आ": 2817,
      "▁Re": 2818,
      "](https://hi.wikipedia.org/wiki/विशेष:पुस्तक": 2819,
      "▁రైలు": 2820,
      "च्छ": 2821,
      "emplate": 2822,
      "](https://hi.wikipedia.org/wiki/विशेष:पुस्तक_स्रोत/978": 2823,
      "టాన్": 2824,
      "द्वीप": 2825,
      "epend": 2826,
      "▁[ISBN](https://hi.wikipedia.org/wiki/ISBN": 2827,
      "](https://te.wikipedia.org/wiki/భారత_": 2828,
      "man": 2829,
      "▁[ISBN](https://hi.wikipedia.org/wiki/ISBN_(": 2830,
      "టెడ్": 2831,
      "5%": 2832,
      "▁le": 2833,
      "▁[ISBN](https://hi.wikipedia.org/wiki/ISBN_(identifier)": 2834,
      "వె": 2835,
      "5%8": 2836,
      "\").[[": 2837,
      "లను": 2838,
      "पुरी": 2839,
      "urope": 2840,
      "▁./श्रेणी:": 2841,
      "ali": 2842,
      "▁\"विशेष:पुस्तक": 2843,
      "ూచ": 2844,
      "ॉल": 2845,
      "80": 2846,
      "నాడు": 2847,
      "ome": 2848,
      "▁पा": 2849,
      "▁खास": 2850,
      "8.": 2851,
      "text": 2852,
      "India)": 2853,
      "arget": 2854,
      "%E0%A5%8": 2855,
      "ashm": 2856,
      "▁थ": 2857,
      "▁భారతదేశ": 2858,
      "केर": 2859,
      "▁cont": 2860,
      "साँचा:": 2861,
      "6)": 2862,
      "केरळ": 2863,
      "tim": 2864,
      "భారతదేశ_": 2865,
      "meter": 2866,
      "▁languages": 2867,
      "ం,": 2868,
      "तान": 2869,
      "▁Th": 2870,
      "ांग्ला": 2871,
      "▁మత": 2872,
      "ंप": 2873,
      "▁Asian": 2874,
      "लाई": 2875,
      "గి": 2876,
      "recogni": 2877,
      "मुख": 2878,
      "భూటాన్": 2879,
      "unrecogni": 2880,
      "▁un": 2881,
      "▁है,": 2882,
      "75": 2883,
      "▁आहार": 2884,
      "gan": 2885,
      "▁है।\n\n": 2886,
      "1950": 2887,
      "ओडिशा": 2888,
      "▁\"L": 2889,
      "మీ": 2890,
      "ांगलादेश": 2891,
      "ystem": 2892,
      "▁హ": 2893,
      "▁ad": 2894,
      "त्प": 2895,
      "▁[the": 2896,
      "elhi": 2897,
      "▁यु": 2898,
      "ంజా": 2899,
      "▁किल्": 2900,
      "evelop": 2901,
      "_1": 2902,
      "ణాసియా": 2903,
      "unrecogniz": 2904,
      "ya": 2905,
      "unrecognized": 2906,
      "sv": 2907,
      "्येनुसार": 2908,
      "alay": 2909,
      "्ञान": 2910,
      "ational_": 2911,
      "and_": 2912,
      "▁बंगाल": 2913,
      "ambridge": 2914,
      "▁जु": 2915,
      "ాయి": 2916,
      "yson": 2917,
      "गुजरा": 2918,
      "▁కొ": 2919,
      "▁मध्ये": 2920,
      "uch": 2921,
      "ेश्वर": 2922,
      "హదార": 2923,
      "ames": 2924,
      "మంత్రి": 2925,
      "ovem": 2926,
      "▁राष्ट्रीय": 2927,
      "साठी": 2928,
      "](https://en.wikipedia.org/wiki/L": 2929,
      "్రమ": 2930,
      "िक्कीम": 2931,
      "ision": 2932,
      "కీయ": 2933,
      "व्यवस्थ": 2934,
      "ell": 2935,
      "56": 2936,
      "ुव": 2937,
      "▁(P": 2938,
      "ni": 2939,
      "template": 2940,
      "arl": 2941,
      "काल": 2942,
      "హిందీ": 2943,
      "बी": 2944,
      "aw": 2945,
      "_मेला": 2946,
      "%20%20%20%20": 2947,
      "▁Hindu": 2948,
      "रक्ष": 2949,
      "న్‌ఫ": 2950,
      "पूर्वी": 2951,
      "▁sub": 2952,
      "చు": 2953,
      "नेपा": 2954,
      "s-": 2955,
      "द्योग": 2956,
      "▁చెంద": 2957,
      "▁ब्रिटिश": 2958,
      "](https://en.wikipedia.org/wiki/Indian_": 2959,
      "_के_आधार": 2960,
      "ేక": 2961,
      "लाल": 2962,
      "continent": 2963,
      "वाद": 2964,
      "▁అయ": 2965,
      "ारे": 2966,
      ",_": 2967,
      "क्षेत्र": 2968,
      "\"](https://web.archive.org/web/201": 2969,
      "▁ऑफ": 2970,
      "irst": 2971,
      "_के_आधार_": 2972,
      "▁స్థాన": 2973,
      "ेशिया": 2974,
      "▁[सं": 2975,
      "hp": 2976,
      "rate": 2977,
      "पर_भारत": 2978,
      "▁ప్రభ": 2979,
      "▁असते.": 2980,
      "lass": 2981,
      "नेमा": 2982,
      "▁ఆసియా": 2983,
      "▁समुद्र": 2984,
      "▁18": 2985,
      "లస": 2986,
      "ांची_यादी": 2987,
      "oh": 2988,
      ".php": 2989,
      "ansk": 2990,
      "ोर्": 2991,
      "నిక": 2992,
      "2008": 2993,
      "59": 2994,
      "7)": 2995,
      "49": 2996,
      "ficial": 2997,
      "](https://te.wikipedia.org/wiki/ప": 2998,
      "ाहिले.": 2999,
      "world": 3000,
      "బ్ద": 3001,
      "पासून": 3002,
      "2014": 3003,
      "జరా": 3004,
      "\")),": 3005,
      "lim": 3006,
      "Te": 3007,
      "▁लेख": 3008,
      "ustry": 3009,
      "_के_आधार_पर_भारत": 3010,
      "▁సభ": 3011,
      "_the": 3012,
      "िक्ष": 3013,
      "శ్రీలంక": 3014,
      "conomic": 3015,
      "बाद": 3016,
      "త్యేక": 3017,
      "गा": 3018,
      "_d": 3019,
      "_के_आधार_पर_भारत_के_राज्य": 3020,
      "▁ఆర్ధిక": 3021,
      "▁./वर्ग:": 3022,
      "_c": 3023,
      "ఒడి": 3024,
      "in/": 3025,
      "year": 3026,
      "▁स्व": 3027,
      "व्ह": 3028,
      "ey": 3029,
      "ंग्रेज़ी": 3030,
      "గణతంత్ర": 3031,
      "[[३": 3032,
      "fter": 3033,
      "ఆఫ్ఘ": 3034,
      "_साम्राज": 3035,
      "artic": 3036,
      "62": 3037,
      "టీ": 3038,
      "▁\"F": 3039,
      "pib": 3040,
      "▁ప్రపంచ": 3041,
      ".jpg)\n\n": 3042,
      "anskrit": 3043,
      "country": 3044,
      "▁झाली": 3045,
      "tates": 3046,
      "▁मंदिर": 3047,
      "▁కాశ్మీ": 3048,
      "▁नदी\")": 3049,
      "▁\"ఉ": 3050,
      "▁येथील": 3051,
      "Union": 3052,
      "-language": 3053,
      "हिमालय": 3054,
      "/https://www.": 3055,
      "▁पुरालेखित।.": 3056,
      "తూర్పు": 3057,
      "▁पक्ष": 3058,
      "ister": 3059,
      "▁[ఉ": 3060,
      "र्वा": 3061,
      "Dw": 3062,
      "▁से](http://": 3063,
      "▁होती": 3064,
      "ories": 3065,
      "्यव": 3066,
      "తాబ్ద": 3067,
      "वारी": 3068,
      "ght": 3069,
      "एशिया": 3070,
      "gue": 3071,
      "शिय": 3072,
      "er,": 3073,
      "▁जुलाई": 3074,
      "ప్ప": 3075,
      "िवस": 3076,
      "emb": 3077,
      "▁दक्षिण": 3078,
      "▁పట్ట": 3079,
      "तां": 3080,
      "-l": 3081,
      "▁క్రీడ": 3082,
      "४७": 3083,
      "-0-5": 3084,
      "▁३": 3085,
      "ran": 3086,
      "▁**జాతీయ": 3087,
      "ांमध्ये": 3088,
      "ug": 3089,
      "▁अप": 3090,
      "_In": 3091,
      ".;": 3092,
      "तेल": 3093,
      "ర్మే": 3094,
      "▁उदा": 3095,
      "▁रूप": 3096,
      "▁డ": 3097,
      "▁सण": 3098,
      "ood": 3099,
      "ीस": 3100,
      "గలు": 3101,
      "यंती": 3102,
      "▁2010": 3103,
      "▁देशों": 3104,
      "ప్రధానమంత్రి": 3105,
      "हिंदी": 3106,
      "ugh": 3107,
      "▁[↑](https://hi.wikipedia.org/wiki/भारत#cite_ref-FOOTNOTE": 3108,
      "▁సామ్రాజ్యం\")": 3109,
      "▁[च": 3110,
      ".gov.in/": 3111,
      "are": 3112,
      "▁U": 3113,
      "[![": 3114,
      "िकिपी": 3115,
      "other": 3116,
      "▁विक": 3117,
      "ం.": 3118,
      "चे_": 3119,
      "మ్రాజ్య": 3120,
      "evelopment": 3121,
      "▁జాబితా": 3122,
      "ण्या": 3123,
      "ल\")": 3124,
      "](https://te.wikipedia.org/wiki/చ": 3125,
      "कल्": 3126,
      "ip": 3127,
      "ori": 3128,
      "ీన": 3129,
      "िकिपीडिया": 3130,
      "००": 3131,
      "ంగ్రె": 3132,
      "_F": 3133,
      "▁3": 3134,
      "articles": 3135,
      "ैकी": 3136,
      "57": 3137,
      "lig": 3138,
      "▁पाहिले.": 3139,
      "▁territ": 3140,
      "▁नाम": 3141,
      "షియా": 3142,
      "▁हिम": 3143,
      "](Special:BookSources/978-1": 3144,
      "74": 3145,
      "ంశ": 3146,
      "ळवंट": 3147,
      "eg": 3148,
      "टे": 3149,
      "మన్": 3150,
      "](https://mr.wikipedia.org/wiki/व": 3151,
      "/Category:": 3152,
      "port": 3153,
      "▁[భారతదేశ": 3154,
      "रिक": 3155,
      "▁./Category:": 3156,
      "▁రాజవంశం": 3157,
      "ics": 3158,
      "82": 3159,
      "గుజరా": 3160,
      "गोल": 3161,
      "▁region": 3162,
      "▁बन": 3163,
      "▁[978-1": 3164,
      "▁अज": 3165,
      "▁\"Special:BookSources/978-1": 3166,
      "▁ప్రభు": 3167,
      "_क्षेत्र": 3168,
      "రాష్ట్రపతి": 3169,
      "व्यवस्था": 3170,
      "ant": 3171,
      "▁न्या": 3172,
      "dia.": 3173,
      "Wor": 3174,
      "▁Island": 3175,
      "श्मीर": 3176,
      "తమిళనాడు": 3177,
      "ाले": 3178,
      "](https://en.wikipedia.org/wiki/F": 3179,
      "thnolo": 3180,
      "▁ind": 3181,
      "St": 3182,
      "िकोब": 3183,
      "▁ag": 3184,
      "▁అత్య": 3185,
      "▁काळात": 3186,
      "ave": 3187,
      "_ज": 3188,
      "▁4": 3189,
      "53": 3190,
      "sti": 3191,
      "5)": 3192,
      "uly": 3193,
      "्यवस्था": 3194,
      "▁सर्वा": 3195,
      "▁कि": 3196,
      "నాల": 3197,
      "_साम्राज्य": 3198,
      "▁तट": 3199,
      "ౌద్ధ": 3200,
      "ध्या": 3201,
      "DF": 3202,
      "html": 3203,
      "▁आक": 3204,
      "ower": 3205,
      "▁एवं": 3206,
      "ష్ణ": 3207,
      "न_": 3208,
      "une": 3209,
      "ंक": 3210,
      "stitu": 3211,
      "_आणि_": 3212,
      "▁[F": 3213,
      "▁జనాభా": 3214,
      "den": 3215,
      "▁Asia\")": 3216,
      "డ్డ": 3217,
      "▁जातो.": 3218,
      "harma": 3219,
      "istr": 3220,
      "य.": 3221,
      "earch": 3222,
      "▁केंद्र": 3223,
      "ibr": 3224,
      "\"](https://www.": 3225,
      "df)": 3226,
      "▁రాష్ట్రాలు,": 3227,
      "ission": 3228,
      "KulkeRothermund": 3229,
      "ంటి": 3230,
      "▁लाग": 3231,
      "ise": 3232,
      "वेर": 3233,
      "emplate:": 3234,
      "నైటెడ్": 3235,
      "▁होत": 3236,
      "▁India,": 3237,
      "KulkeRothermund2004": 3238,
      "Unit": 3239,
      "ाता": 3240,
      "▁Empire": 3241,
      "▁वैदिक": 3242,
      "ice": 3243,
      "యునైటెడ్": 3244,
      "ुप्त": 3245,
      "illion": 3246,
      "सभा": 3247,
      "aman": 3248,
      "▁భా": 3249,
      "▁पठार": 3250,
      "on-": 3251,
      "▁अनुसार": 3252,
      ":CS1": 3253,
      "rib": 3254,
      "संख्या": 3255,
      "lop": 3256,
      "of_India": 3257,
      "ummit\")": 3258,
      "[![](https://upload.wikimedia.org/wikipedia/commons/thumb/": 3259,
      "_ప్రదేశ్": 3260,
      "dom": 3261,
      "వాణా": 3262,
      "ंदू": 3263,
      "▁\"South": 3264,
      "्तर": 3265,
      "velop": 3266,
      "AsherT": 3267,
      "PD": 3268,
      "नाग": 3269,
      "velopment": 3270,
      "मेरिक": 3271,
      "-b": 3272,
      "▁\"द": 3273,
      "oll": 3274,
      "new": 3275,
      "▁प्राणी": 3276,
      "-m": 3277,
      "king": 3278,
      "ళు": 3279,
      "चिन्हे": 3280,
      "AsherTalbot": 3281,
      "एस": 3282,
      "thnologue": 3283,
      "▁(PDF": 3284,
      "▁मूल": 3285,
      "ing\\_": 3286,
      "lear": 3287,
      "िया\")": 3288,
      "▁ఆధ": 3289,
      "▁४": 3290,
      "eneral": 3291,
      "▁గల": 3292,
      "lish": 3293,
      "गो": 3294,
      "కొ": 3295,
      "▁असून": 3296,
      "्यटन": 3297,
      "ీర్": 3298,
      "\n4": 3299,
      "ountry": 3300,
      "ोड़": 3301,
      "San": 3302,
      "ंदमान": 3303,
      "ect": 3304,
      "ర్చ": 3305,
      ".go": 3306,
      "▁\"J": 3307,
      "खा": 3308,
      "_చరిత్ర?action=edit&redlink=1": 3309,
      "rab": 3310,
      "धिकार": 3311,
      "▁[వి": 3312,
      "▁असले": 3313,
      "-india": 3314,
      "par": 3315,
      "s.[[": 3316,
      "population": 3317,
      "ार्ट": 3318,
      "▁భారతదేశంలో": 3319,
      "▁[J": 3320,
      "–సా.శ.18": 3321,
      "uddh": 3322,
      "गुजरात": 3323,
      "లే": 3324,
      "त्रूटी": 3325,
      "anges": 3326,
      "म्बर": 3327,
      "మాఖ్య": 3328,
      "aint": 3329,
      "धी": 3330,
      "_మతము": 3331,
      "▁प्रदेश](https://mr.wikipedia.org/wiki/": 3332,
      "ड़ी": 3333,
      "ాలు?action=edit&redlink=1": 3334,
      "▁अत": 3335,
      "250": 3336,
      "జె": 3337,
      "▁\"व": 3338,
      "ely": 3339,
      "off": 3340,
      "దక్షిణాసియా": 3341,
      "जे": 3342,
      "](https://en.wikipedia.org/wiki/J": 3343,
      "▁जो": 3344,
      "▁మొద": 3345,
      "▁Ind": 3346,
      ".jpg)](https://hi.wikipedia.org/wiki/चित्र:": 3347,
      "ంగ్లీ": 3348,
      "श्र": 3349,
      "cies": 3350,
      "▁सेना": 3351,
      "ర్\")": 3352,
      "एँ": 3353,
      "/c": 3354,
      "ledge": 3355,
      "0%B": 3356,
      "\n3": 3357,
      "engal": 3358,
      "लि": 3359,
      "▁**राष्ट्रीय": 3360,
      "hina": 3361,
      "ैक": 3362,
      "▁కార": 3363,
      "▁language\")": 3364,
      "▁[हिन्द": 3365,
      "క్‌సభ": 3366,
      "_Press": 3367,
      "/మ": 3368,
      "th_": 3369,
      "▁July": 3370,
      "ेस": 3371,
      "▁सर्वाधिक": 3372,
      "pu": 3373,
      "64": 3374,
      "▁యు": 3375,
      "▁युद्ध": 3376,
      "uropean": 3377,
      "▁New": 3378,
      "नाथ": 3379,
      "డే": 3380,
      "▁पड": 3381,
      "▁year": 3382,
      "हाय्य:CS1": 3383,
      "gy": 3384,
      "క్నాల": 3385,
      "िकोबार": 3386,
      "rov": 3387,
      "तिक": 3388,
      "న్\")": 3389,
      "त्ये": 3390,
      "▁system": 3391,
      "Edit": 3392,
      "gr": 3393,
      "uclear": 3394,
      "सी": 3395,
      "▁into": 3396,
      "[[४": 3397,
      "inistry": 3398,
      "TN": 3399,
      "▁सु": 3400,
      "times": 3401,
      "TNOTE": 3402,
      "▁Ch": 3403,
      "▁अन्य": 3404,
      "_by": 3405,
      "विष": 3406,
      "1994": 3407,
      "_by_": 3408,
      "_आशिया": 3409,
      "▁An": 3410,
      "PDF": 3411,
      "▁పాల": 3412,
      "त्त्व": 3413,
      "aper": 3414,
      "లలో": 3415,
      "▁during": 3416,
      "▁एशिया": 3417,
      "वार्ष": 3418,
      "▁7": 3419,
      "ताज": 3420,
      "ats": 3421,
      "दू": 3422,
      "కాశ్మీ": 3423,
      "/in": 3424,
      "51": 3425,
      "](https://mr.wikipedia.org/wiki/जगातील": 3426,
      "69": 3427,
      "/మూస:": 3428,
      "ofi": 3429,
      "yn": 3430,
      "मह": 3431,
      "టిక": 3432,
      "▁मोठ्या": 3433,
      "uj": 3434,
      "घल": 3435,
      "▁Ap": 3436,
      "ేంద్రపాలిత_ప్రా": 3437,
      "ंतप्र": 3438,
      "ैदान": 3439,
      "▁\"వి": 3440,
      "क्र": 3441,
      "also": 3442,
      "2005": 3443,
      "ंडोन": 3444,
      "ober": 3445,
      "Nation": 3446,
      "kno": 3447,
      "_summit": 3448,
      "▁వచ్చింది.": 3449,
      "गत": 3450,
      "-d": 3451,
      "]](https://hi.wikipedia.org/wiki/भारत#cite_note-1": 3452,
      "\")*": 3453,
      "फळ": 3454,
      "ril": 3455,
      "త్యేక:": 3456,
      "▁पान": 3457,
      "वेब": 3458,
      "▁కలి": 3459,
      "▁सुर": 3460,
      "ed.": 3461,
      "पति": 3462,
      "▁[ఆ": 3463,
      "क्षण": 3464,
      "▁first": 3465,
      "▁[द": 3466,
      "ప్రదాయ": 3467,
      "श्रील": 3468,
      "ashmir": 3469,
      "▁[[": 3470,
      "వర": 3471,
      "▁econom": 3472,
      "रो": 3473,
      "FOO": 3474,
      "▁अतिश": 3475,
      "iron": 3476,
      "तंत्रता": 3477,
      "త్తరా": 3478,
      "▁क्रम": 3479,
      "outledge": 3480,
      "Con": 3481,
      "its": 3482,
      "fic": 3483,
      "Hind": 3484,
      "artz": 3485,
      "▁form": 3486,
      "Ed": 3487,
      "wartz": 3488,
      "▁Press\").": 3489,
      "chwartz": 3490,
      "rin": 3491,
      "▁[↑](https://hi.wikipedia.org/wiki/भारत#cite_ref-1": 3492,
      "క్నాలజీ": 3493,
      "chwartzber": 3494,
      "▁Archived": 3495,
      "ी_भाषा": 3496,
      "-s": 3497,
      "अन": 3498,
      "ద్వీ": 3499,
      "न्स": 3500,
      "▁Pres": 3501,
      "ాలో": 3502,
      "8)": 3503,
      "ure": 3504,
      "जय": 3505,
      "ibrary": 3506,
      "ंडोनेशिया": 3507,
      "usines": 3508,
      "पुरा": 3509,
      "matics": 3510,
      "वंश": 3511,
      "రికత": 3512,
      "डे": 3513,
      "▁have": 3514,
      "▁जाता": 3515,
      "uk": 3516,
      "द्योगिक": 3517,
      "s_C": 3518,
      "स्वती": 3519,
      "8/": 3520,
      "▁శాస్త్ర": 3521,
      "▁(इ": 3522,
      "▁their": 3523,
      "टक": 3524,
      "ాల్దీవ": 3525,
      "▁भाष": 3526,
      ".\"\n": 3527,
      "▁ప్రధాన": 3528,
      "भूतान": 3529,
      "68": 3530,
      "▁లే": 3531,
      "क्षद्वीप": 3532,
      "▁उत्तर": 3533,
      "्राट": 3534,
      "inister": 3535,
      "ड़े": 3536,
      "▁History": 3537,
      "यालय": 3538,
      "▁ఉప": 3539,
      "▁देशांची": 3540,
      "ley": 3541,
      "मंत्र": 3542,
      "_న": 3543,
      "र्ण": 3544,
      "▁దేశంలో": 3545,
      "ूण": 3546,
      "ined": 3547,
      "पे": 3548,
      "యి": 3549,
      "्यांमध्ये": 3550,
      "▁north": 3551,
      "Of": 3552,
      "దక్షిణ_": 3553,
      "▁[ल": 3554,
      "idd": 3555,
      "హిమ": 3556,
      "▁बदल": 3557,
      "▁cons": 3558,
      "ంటు": 3559,
      "eptem": 3560,
      "ంధు": 3561,
      "▁किल्ला": 3562,
      "eptember": 3563,
      "▁[पु": 3564,
      "▁व्या": 3565,
      "65": 3566,
      "ప్రత్యేక:": 3567,
      "वळ": 3568,
      "▁comp": 3569,
      "िज़": 3570,
      "ప్రత్యేక:Edit": 3571,
      "वेरूळ": 3572,
      "▁(201": 3573,
      ".pdf)": 3574,
      "▁సంగీతం": 3575,
      "radition": 3576,
      "▁समय": 3577,
      "ాళు": 3578,
      "mo": 3579,
      "ironment": 3580,
      "br": 3581,
      "ాళుక్య": 3582,
      "ंतप्रधान": 3583,
      "▁government": 3584,
      "ेट": 3585,
      "\n\nభారతదేశం": 3586,
      "त्ती": 3587,
      "vironment": 3588,
      "द्यान": 3589,
      "ద్ధి": 3590,
      "र्क": 3591,
      "▁so": 3592,
      "ack": 3593,
      "▁घे": 3594,
      "yan": 3595,
      "-0-521": 3596,
      "క్కువ": 3597,
      "know": 3598,
      "▁class": 3599,
      "▁భ": 3600,
      "att": 3601,
      "पैकी": 3602,
      "\").\n": 3603,
      "रवरी": 3604,
      "లకు": 3605,
      "▁नृत्य\")": 3606,
      "athe": 3607,
      "विज्ञान": 3608,
      "List_of_": 3609,
      "](https://mr.wikipedia.org/wiki/ल": 3610,
      "_I": 3611,
      "▁\"हिन्द": 3612,
      "List_of_countries": 3613,
      "▁शा": 3614,
      "iff": 3615,
      "\")\n": 3616,
      "](https://te.wikipedia.org/wiki/List_of_countries": 3617,
      "▁[Dikshit": 3618,
      "▁also": 3619,
      "र्थिक": 3620,
      "మార్": 3621,
      "_देशांची_यादी": 3622,
      "▁Sh": 3623,
      "डु": 3624,
      "india.gov.in/": 3625,
      "िहार": 3626,
      "▁[W": 3627,
      "▁రె": 3628,
      "ालीन": 3629,
      "argest": 3630,
      "age/మూస:": 3631,
      "ee": 3632,
      "[[1": 3633,
      "Page/మూస:": 3634,
      "_नृत्य": 3635,
      "▁हुई": 3636,
      "ప్రత్యేక:EditPage/మూస:": 3637,
      "रस्वती": 3638,
      "fl": 3639,
      "धु": 3640,
      "_ब": 3641,
      "entral": 3642,
      "data": 3643,
      "ెలుగు": 3644,
      "▁विद्य": 3645,
      "▁World": 3646,
      "ద్య": 3647,
      "▁विद्यार्थ": 3648,
      "ural": 3649,
      "ాయి.": 3650,
      "t_": 3651,
      "_K": 3652,
      "నాగరికత": 3653,
      "\n2": 3654,
      "ctober": 3655,
      "▁\"सं": 3656,
      "▁निर्म": 3657,
      "▁Pradesh": 3658,
      "9)": 3659,
      "नेपाळ": 3660,
      "ople": 3661,
      "▁मा": 3662,
      "ానికి": 3663,
      "वार्षिक": 3664,
      "ution": 3665,
      "माज": 3666,
      "/a": 3667,
      "िकिपीडिया:": 3668,
      "_m": 3669,
      "లు\")": 3670,
      "ासा": 3671,
      "ari": 3672,
      "▁छ": 3673,
      "నిమా": 3674,
      "\")*.": 3675,
      "▁द्वार": 3676,
      "uthor": 3677,
      "▁\"जगातील": 3678,
      "▁October": 3679,
      "▁चु": 3680,
      "000": 3681,
      "त्रिपुरा": 3682,
      "▁us": 3683,
      "హిమాలయ": 3684,
      "arameter": 3685,
      "▁[I": 3686,
      "University_Press": 3687,
      "gi": 3688,
      "వర్గం:Harv": 3689,
      "chn": 3690,
      "▁2014.": 3691,
      "चेरी": 3692,
      "Intern": 3693,
      "cience": 3694,
      "▁8": 3695,
      "वर्ग:CS1\\_": 3696,
      "wing": 3697,
      "-107": 3698,
      "ళ్": 3699,
      "ीया": 3700,
      "▁September": 3701,
      "सेना": 3702,
      "▁./వర్గం:W": 3703,
      "▁pl": 3704,
      "ులు\"),": 3705,
      "](https://mr.wikipedia.org/wiki/भारत#d": 3706,
      "చ్చే": 3707,
      "▁2007](https://mr.wikipedia.org/wiki/भारत#d": 3708,
      "Dyson": 3709,
      "ी](https://hi.wikipedia.org/wiki/अ": 3710,
      "స్లా": 3711,
      "▁2007](https://mr.wikipedia.org/wiki/भारत#dikshit": 3712,
      "ayan": 3713,
      "नाव": 3714,
      "▁countries": 3715,
      "ंध्र": 3716,
      "_Indian_": 3717,
      "S1": 3718,
      "రిహ": 3719,
      "▁मस": 3720,
      "ishing": 3721,
      "estern": 3722,
      "▁2014": 3723,
      "]](https://mr.wikipedia.org/wiki/भारत#cite_note-4": 3724,
      "ongress": 3725,
      "న్నడ": 3726,
      "jab": 3727,
      "AQ": 3728,
      "ote": 3729,
      "bl": 3730,
      "pt": 3731,
      "250px-": 3732,
      "స్వ": 3733,
      "▁आप": 3734,
      "iver": 3735,
      "त्पाद": 3736,
      "ద్ధం": 3737,
      "▁प्रत्ये": 3738,
      "isher": 3739,
      "▁చి": 3740,
      "rofi": 3741,
      "▁not": 3742,
      "हिन्दी": 3743,
      "టెక్నాలజీ": 3744,
      "ला.": 3745,
      "ban": 3746,
      "ర్చ:": 3747,
      "chwartzberg": 3748,
      "raven": 3749,
      "रुण": 3750,
      "-19": 3751,
      "▁కాంగ్రె": 3752,
      "▁Schwartzberg": 3753,
      "▁world": 3754,
      "ోల్": 3755,
      "िंठा": 3756,
      "omb": 3757,
      "जिंठा": 3758,
      "फ़रवरी": 3759,
      "ఆఫ్ఘనిస్తాన్": 3760,
      "रुणाचल": 3761,
      "omen": 3762,
      "ष्ण": 3763,
      "nvironment": 3764,
      "్యం": 3765,
      "कल": 3766,
      "▁Comm": 3767,
      "▁खाना\")": 3768,
      "▁వ్యాస": 3769,
      "▁./वर्ग:CS1\\_": 3770,
      "rans": 3771,
      "▁बढ़": 3772,
      "▁\"ఆ": 3773,
      "▁गणराज्य": 3774,
      "gency": 3775,
      "▁अग": 3776,
      "▁[హ": 3777,
      "_अ": 3778,
      "edic": 3779,
      "జో": 3780,
      "▁वन": 3781,
      "8](https://en.wikipedia.org/wiki/India#CITEREF": 3782,
      "हासागर": 3783,
      "మాచల్": 3784,
      "▁निव": 3785,
      "ash": 3786,
      "र्दू": 3787,
      "మిజో": 3788,
      "ळू": 3789,
      "_L": 3790,
      "lang": 3791,
      "▁\"ल": 3792,
      "100": 3793,
      "ween": 3794,
      "904": 3795,
      "ీహ": 3796,
      "▁झाली.": 3797,
      "etween": 3798,
      "▁వంశ": 3799,
      "उत्तरा": 3800,
      "pur": 3801,
      "_धर्म": 3802,
      "uman": 3803,
      "ికి": 3804,
      "▁\"W": 3805,
      "▁लिए": 3806,
      "ద్దు": 3807,
      "लोकसंख्येनुसार": 3808,
      "ock": 3809,
      "▁हुआ": 3810,
      "ుల్": 3811,
      "▁2007](https://mr.wikipedia.org/wiki/भारत#dikshit),": 3812,
      "▁April": 3813,
      "▁दिया": 3814,
      "▁అతి": 3815,
      "rofile": 3816,
      "mi": 3817,
      "imf": 3818,
      "श्रीलं": 3819,
      "arle": 3820,
      "ద్రా": 3821,
      "श्रीलंका": 3822,
      "istan": 3823,
      "▁ప్రదేశ్\")": 3824,
      "ar_": 3825,
      "_University_Press": 3826,
      "खाना": 3827,
      "2_": 3828,
      "▁उदाहर": 3829,
      "▁(200": 3830,
      "▁विकास": 3831,
      "రువా": 3832,
      "\n\nभारतीय": 3833,
      "iz": 3834,
      "ईसा": 3835,
      "▁రాజకీయ": 3836,
      "▁प्रत्येक": 3837,
      "eser": 3838,
      "e](https://te.wikipedia.org/wiki/": 3839,
      "ुचेरी": 3840,
      "58": 3841,
      "so": 3842,
      "హిమాచల్": 3843,
      "वाघ": 3844,
      "▁[Archived](https://web.archive.org/web/202": 3845,
      "्रां": 3846,
      "కళ": 3847,
      "DP": 3848,
      "్రూ": 3849,
      "▁उपस": 3850,
      "ne": 3851,
      "▁ऊ": 3852,
      "pril": 3853,
      "▁सर्वांत": 3854,
      "DwAAQBAJ&pg=PA": 3855,
      "▁गेट": 3856,
      "ikh": 3857,
      "ोम": 3858,
      ".html": 3859,
      "वस": 3860,
      "rd": 3861,
      "▁[19": 3862,
      "iddle": 3863,
      "राष्ट्रपति": 3864,
      "IB": 3865,
      "▁करून": 3866,
      "▁India\"),": 3867,
      "ृति": 3868,
      "ట్టు": 3869,
      "ERE": 3870,
      "Dyson2018": 3871,
      "▁क्षेत्र\")": 3872,
      "forma": 3873,
      "प्रज": 3874,
      "sl": 3875,
      "ీక": 3876,
      "▁\"O": 3877,
      "▁శతాబ్ద": 3878,
      "ोड": 3879,
      "-c": 3880,
      "▁दिस": 3881,
      "తెలుగు": 3882,
      "▁17": 3883,
      "▁मार": 3884,
      "రాజస్థాన్": 3885,
      "ामध": 3886,
      "ird": 3887,
      "-1-107": 3888,
      "యో": 3889,
      "6](https://en.wikipedia.org/wiki/India#CITEREF": 3890,
      "गणना": 3891,
      "00–సా.శ.పూ.": 3892,
      "▁\"मध्य": 3893,
      "_H": 3894,
      "वै": 3895,
      "▁వాతావరణ": 3896,
      "vo": 3897,
      "▁res": 3898,
      "](https://hi.wikipedia.org/wiki/इ": 3899,
      "entre": 3900,
      "_देशांची_यादी_(": 3901,
      "fric": 3902,
      "▁जून": 3903,
      "న్‌ఫర్మే": 3904,
      "](https://mr.wikipedia.org/wiki/जगातील_देशांची_यादी_(": 3905,
      "unjab": 3906,
      "ारी": 3907,
      "ాలా": 3908,
      "పద": 3909,
      "ेत्रफळ": 3910,
      "chnology": 3911,
      "▁సామ్రాజ్య": 3912,
      "जाति": 3913,
      "▁de": 3914,
      "यार": 3915,
      "▁more": 3916,
      "న్‌ఫర్మేషన్": 3917,
      "धानमंत्र": 3918,
      "న్నో": 3919,
      "▁क्ष": 3920,
      "_re": 3921,
      "▁दे": 3922,
      "హాత్": 3923,
      "ीमा": 3924,
      "▁this": 3925,
      "71": 3926,
      "హాత్మా": 3927,
      "▁इम": 3928,
      "▁part": 3929,
      "గుజరాత్": 3930,
      "▁इमारत": 3931,
      "▁dis": 3932,
      "గిన": 3933,
      "िकिपीडिया:संदर्भ": 3934,
      "▁century": 3935,
      "योग": 3936,
      "మ్": 3937,
      "▁बांध": 3938,
      "andhi": 3939,
      "ugust": 3940,
      "air": 3941,
      "▁अतिशय": 3942,
      "ally": 3943,
      "त्तरा": 3944,
      "ffair": 3945,
      "](https://mr.wikipedia.org/wiki/ह": 3946,
      "▁music": 3947,
      ".పూ.": 3948,
      "racy": 3949,
      "क्स": 3950,
      "▁జరి": 3951,
      "dex": 3952,
      "▁im": 3953,
      "ूर्": 3954,
      "వేద": 3955,
      "\n1": 3956,
      "rade": 3957,
      "्रीका": 3958,
      "ml": 3959,
      "ones": 3960,
      "न](https://hi.wikipedia.org/wiki/": 3961,
      "రిహద్దు": 3962,
      "ग्ने": 3963,
      "▁విస్త": 3964,
      "▁पासून": 3965,
      "▁[Indian": 3966,
      "ేర": 3967,
      "माणु": 3968,
      "शियातील": 3969,
      "able": 3970,
      "▁दिसम्बर": 3971,
      "▁26": 3972,
      "▁[↑](https://mr.wikipedia.org/wiki/भारत#cite_ref-4": 3973,
      "ool": 3974,
      "तांशी": 3975,
      "reas": 3976,
      "▁निर्": 3977,
      "▁धर्म\")": 3978,
      "berg": 3979,
      "नेपाल": 3980,
      "దినో": 3981,
      ":भारतीय": 3982,
      "fe": 3983,
      "स्कृति": 3984,
      "దినోత్స": 3985,
      "▁जाते": 3986,
      "▁August": 3987,
      "पात": 3988,
      "▁\"ఢిల్లీ": 3989,
      "▁जाते.": 3990,
      "▁between": 3991,
      "▁पह": 3992,
      "ట్ర": 3993,
      "CIT": 3994,
      "pa": 3995,
      "హారా": 3996,
      "](https://mr.wikipedia.org/wiki/भारत#CIT": 3997,
      "▁dance": 3998,
      "హారాష్ట్ర": 3999,
      "मर": 4000,
      "▁Y": 4001,
      "ాలలో": 4002,
      "खन": 4003,
      "44": 4004,
      "▁मार्च": 4005,
      "ok": 4006,
      "lad": 4007,
      "र्स": 4008,
      "వ](https://te.wikipedia.org/wiki/List_of_countries": 4009,
      "▁pp": 4010,
      "arlia": 4011,
      "▁थी": 4012,
      "బెంగాల": 4013,
      "▁al": 4014,
      "▁शासन": 4015,
      "శాస్త్ర": 4016,
      "▁\"साचा": 4017,
      "tal": 4018,
      "ase": 4019,
      "ानंतर": 4020,
      "form": 4021,
      "ंग्रेस": 4022,
      "टा": 4023,
      "▁subcontinent": 4024,
      "భి": 4025,
      "ग्नेय": 4026,
      "ram": 4027,
      "▁द्वारा": 4028,
      "గం": 4029,
      "ंग्लिश": 4030,
      "arliament": 4031,
      "िज": 4032,
      "▁संगीत": 4033,
      "urr": 4034,
      "ణాచల్": 4035,
      "_राज्ये": 4036,
      "-81": 4037,
      "ी\"),": 4038,
      "ణాటక": 4039,
      "▁अर्थव्यवस्था": 4040,
      "rick": 4041,
      "ర్ణాటక": 4042,
      "ering": 4043,
      "ळख": 4044,
      "గఢ": 4045,
      "%E0%A4%9": 4046,
      "clud": 4047,
      "▁2014.\n": 4048,
      "▁రహదార": 4049,
      "ोद": 4050,
      "adu": 4051,
      "Official": 4052,
      "▁ఇది": 4053,
      "ानेवारी": 4054,
      "ompany": 4055,
      "▁ठ": 4056,
      "▁9": 4057,
      "▁बना": 4058,
      "శో": 4059,
      "\nCategory:": 4060,
      "वेबैक": 4061,
      "miss": 4062,
      "Template:": 4063,
      "▁संविधान": 4064,
      "లోక్‌సభ": 4065,
      "▁after": 4066,
      "ैल": 4067,
      "▁द्": 4068,
      "-in": 4069,
      "्यता": 4070,
      "ండర్": 4071,
      "cul": 4072,
      "](https://hi.wikipedia.org/wiki/भारतीय": 4073,
      "రుణాచల్": 4074,
      "EREF": 4075,
      "_प": 4076,
      "](https://mr.wikipedia.org/wiki/भारत#CITEREF": 4077,
      "हीं": 4078,
      "१५": 4079,
      "ैंड": 4080,
      "గ్": 4081,
      "](https://mr.wikipedia.org/wiki/साचा": 4082,
      "▁ru": 4083,
      "▁फ़रवरी": 4084,
      "యన్మార్": 4085,
      "▁हिन्दी": 4086,
      "చ్చేరి": 4087,
      "▁निवड": 4088,
      "http://": 4089,
      "లక్ష": 4090,
      "](https://mr.wikipedia.org/wiki/द": 4091,
      "cient": 4092,
      "म\")": 4093,
      "ourc": 4094,
      "▁परंत": 4095,
      "5–": 4096,
      "హు": 4097,
      "▁परंतु": 4098,
      "▁Press.": 4099,
      "](https://te.wikipedia.org/wiki/ఉ": 4100,
      "/index": 4101,
      "▁but": 4102,
      "र्जा": 4103,
      "▁\"హ": 4104,
      "▁द्वीप": 4105,
      "a,": 4106,
      "](https://hi.wikipedia.org/wiki/सं": 4107,
      "ంతం": 4108,
      "▁per": 4109,
      "langoff": 4110,
      "CIA": 4111,
      "mar": 4112,
      "ుల": 4113,
      "र्चा": 4114,
      "3_": 4115,
      "ీహార్": 4116,
      "▁ओळख": 4117,
      "eh": 4118,
      "र्वत": 4119,
      "2003": 4120,
      "▁वर्षां": 4121,
      "vi": 4122,
      "▁पार्ट": 4123,
      "రాష్ట్రాలు,": 4124,
      "स्लामी": 4125,
      "rop": 4126,
      "िन्": 4127,
      "షా": 4128,
      "▁जगातील": 4129,
      "ౌర్య": 4130,
      "▁वेग": 4131,
      "ild": 4132,
      "▁मैदान": 4133,
      "Ti": 4134,
      "io": 4135,
      "hol": 4136,
      "▁संग": 4137,
      "fo": 4138,
      "वसाय": 4139,
      "%2F": 4140,
      "।\n\n": 4141,
      "▁ముఖ్య": 4142,
      "ह्या": 4143,
      "anu": 4144,
      "पालिका": 4145,
      "హాయ": 4146,
      "ह्याद्र": 4147,
      "330": 4148,
      "नाडु": 4149,
      "formatic": 4150,
      "▁\"ह": 4151,
      "▁\"I": 4152,
      "पर्यटन": 4153,
      "ంజాబ్": 4154,
      "-40": 4155,
      "▁अरब": 4156,
      "లం": 4157,
      "णिपूर": 4158,
      "▁years": 4159,
      "entre2005": 4160,
      "प्रजासत्ताक": 4161,
      "ures": 4162,
      "](https://hi.wikipedia.org/wiki/भारत#cite_ref-FOOTNOTE": 4163,
      "▁क्रमांक": 4164,
      "▁been": 4165,
      "-80": 4166,
      "▁వే": 4167,
      "ेकड": 4168,
      "▁सिनेमा": 4169,
      "Ta": 4170,
      "य.ए": 4171,
      "olitical": 4172,
      "▁భారత్": 4173,
      "र्ज": 4174,
      "eograph": 4175,
      "sy": 4176,
      "राव": 4177,
      "doi.org/": 4178,
      "మెరి": 4179,
      "](https://mr.wikipedia.org/wiki/सं": 4180,
      "doi.org/10.": 4181,
      "▁ప్రాంతాలు\")": 4182,
      "88": 4183,
      "ुरु": 4184,
      "స్](https://te.wikipedia.org/wiki/": 4185,
      "कल्प": 4186,
      "▁ab": 4187,
      "▁इसके": 4188,
      "▁ఎన్నో": 4189,
      "उत्तराखंड": 4190,
      "52": 4191,
      "शीन": 4192,
      "లతో": 4193,
      "ृष्ट्या": 4194,
      "▁over": 4195,
      "pen": 4196,
      "72": 4197,
      "िक्षा": 4198,
      "1,": 4199,
      "▁extra": 4200,
      "▁(identifier)\"):": 4201,
      "▁उदाहरण": 4202,
      "▁(identifier)\"):[": 4203,
      "ौर": 4204,
      "%7": 4205,
      "धि": 4206,
      "టుంబ": 4207,
      "`|": 4208,
      "rime": 4209,
      "▁हैं,": 4210,
      "కారం": 4211,
      "ladesh": 4212,
      "్రిటిషు": 4213,
      "▁मोठा": 4214,
      "▁most": 4215,
      "ీస్": 4216,
      "तन": 4217,
      "▁For": 4218,
      "sk": 4219,
      ".sv": 4220,
      "▁घाट": 4221,
      "fiers": 4222,
      "ह्याद्री": 4223,
      "ered": 4224,
      "43": 4225,
      "cens": 4226,
      "penden": 4227,
      "▁राज्यात": 4228,
      "ia\")": 4229,
      "C&pg=PA": 4230,
      "మన": 4231,
      "in_": 4232,
      "ece": 4233,
      "खण्ड": 4234,
      "ర్లు": 4235,
      "राठी": 4236,
      "టో": 4237,
      "मारक": 4238,
      "ritan": 4239,
      "ूचना": 4240,
      "తం\")": 4241,
      "चर": 4242,
      "nglish": 4243,
      "NGDP": 4244,
      "▁जल": 4245,
      "హ్మ": 4246,
      "▁राष्ट्रपती": 4247,
      "india.gov": 4248,
      "Page": 4249,
      "గంగా": 4250,
      "ंनी": 4251,
      "ritannic": 4252,
      "▁दर": 4253,
      "identifiers": 4254,
      "ajor": 4255,
      "ताब्": 4256,
      "దక్షిణ_ఆసియా": 4257,
      "वाहर": 4258,
      "▁sh": 4259,
      "ధించ": 4260,
      "▁\"महाराष्ट्र": 4261,
      "ess": 4262,
      "ुंबई": 4263,
      "ikipedia": 4264,
      "िती": 4265,
      "angladesh": 4266,
      "रू": 4267,
      "ెనీ": 4268,
      "ौद्योगिक": 4269,
      "త్తం": 4270,
      "_a": 4271,
      "▁tw": 4272,
      "रेल": 4273,
      "మించ": 4274,
      "▁./वर्ग:CS1\\_maint:": 4275,
      "IN": 4276,
      "▁దక్షిణ": 4277,
      "▁./वर्ग:CS1\\_maint:\\_": 4278,
      "son": 4279,
      "▁प्रति": 4280,
      "మర": 4281,
      ".archive": 4282,
      "irect": 4283,
      "िक्कि": 4284,
      "డిన": 4285,
      "▁([link": 4286,
      "▁Ar": 4287,
      "pd": 4288,
      "६-": 4289,
      "▁election": 4290,
      "▁|\n\n": 4291,
      "ganisation": 4292,
      "▁మొత్తం": 4293,
      "▁प्राण": 4294,
      "creas": 4295,
      "रण": 4296,
      "▁खासदार": 4297,
      "###": 4298,
      "लिस": 4299,
      "కిస్థాన్": 4300,
      "yage": 4301,
      "ttar": 4302,
      "pendencies": 4303,
      "voyage": 4304,
      "life": 4305,
      "లమె": 4306,
      "रवि": 4307,
      "/artic": 4308,
      "](https://hi.wikipedia.org/wiki/भारत_की_": 4309,
      "t/": 4310,
      "▁निकोबार": 4311,
      "▁East": 4312,
      "-78": 4313,
      "igi": 4314,
      "ikipedia\\_": 4315,
      "ham": 4316,
      "_12": 4317,
      "▁నే": 4318,
      "▁मंदि": 4319,
      "2024": 4320,
      "ayb": 4321,
      "▁[1](https://mr.wikipedia.org/wiki/भारत#cite_ref-": 4322,
      "▁10": 4323,
      "तेलु": 4324,
      "2](https://mr.wikipedia.org/wiki/भारत#cite_ref-": 4325,
      "ide": 4326,
      "ంపెనీ": 4327,
      "▁तयार": 4328,
      "ligion": 4329,
      "maint:_": 4330,
      "Wiki": 4331,
      "1200": 4332,
      "क्षेत्रफळ": 4333,
      "▁[1](https://en.wikipedia.org/wiki/India#cite_ref-FOOTNOTE": 4334,
      "धानमंत्री": 4335,
      "▁ఏర్": 4336,
      "ombined": 4337,
      "▁ఫ": 4338,
      "ातून": 4339,
      "mu": 4340,
      "-0-521-80": 4341,
      "▁నగర": 4342,
      "▁bec": 4343,
      "26)": 4344,
      "▁[2](https://en.wikipedia.org/wiki/India#cite_ref-FOOTNOTE": 4345,
      "▁ఎక్కువ": 4346,
      "स्तन": 4347,
      "▁con": 4348,
      "905": 4349,
      "▁పెద్ద": 4350,
      "▁प्रामु": 4351,
      "ार्त": 4352,
      "ca": 4353,
      "▁तरी": 4354,
      "3-0)": 4355,
      "▁रह": 4356,
      "यी": 4357,
      "वीं": 4358,
      "▁హిందూ": 4359,
      "रबी": 4360,
      "▁[South": 4361,
      "▁2009": 4362,
      "articles\\_with\\_": 4363,
      "rahm": 4364,
      "-111": 4365,
      "ikipedia\\_articles\\_with\\_": 4366,
      "▁प्रामुख्या": 4367,
      "roup": 4368,
      "ారస": 4369,
      "▁[2](https://mr.wikipedia.org/wiki/भारत#cite_ref-": 4370,
      "▁Metcalf": 4371,
      "▁ప్రజ": 4372,
      "▁([link](https://mr.wikipedia.org/wiki/": 4373,
      "CE": 4374,
      "66": 4375,
      "▁సాం": 4376,
      "▁([link](https://mr.wikipedia.org/wiki/वर्ग:CS1": 4377,
      "%2C_": 4378,
      "ాలను": 4379,
      "▁([link](https://mr.wikipedia.org/wiki/वर्ग:CS1_": 4380,
      "ujar": 4381,
      "minal": 4382,
      "लोकसंख्या": 4383,
      "▁2006](https://en.wikipedia.org/wiki/India#CITEREF": 4384,
      "श्री": 4385,
      "▁అనే": 4386,
      "▁k": 4387,
      "▁दृ": 4388,
      "िश्च": 4389,
      "ton": 4390,
      "-0-521-80904": 4391,
      "▁झाला.": 4392,
      "్రీ.పూ.": 4393,
      "क्षा": 4394,
      "peration": 4395,
      "AQBA": 4396,
      "iew": 4397,
      "ovement": 4398,
      "AAQBA": 4399,
      "ayback": 4400,
      "राठा": 4401,
      "▁Oxford": 4402,
      "िवा": 4403,
      "arn": 4404,
      "राठ": 4405,
      "0.": 4406,
      "ैस": 4407,
      "ndaman": 4408,
      "▁न्यायालय": 4409,
      "▁[భారతదేశం": 4410,
      "ven": 4411,
      "िये": 4412,
      "▁15": 4413,
      "त.": 4414,
      "ala": 4415,
      "ूनिव": 4416,
      "నల్": 4417,
      "news/": 4418,
      "low": 4419,
      "skrit": 4420,
      "time": 4421,
      "Sanskrit": 4422,
      "](https://en.wikipedia.org/wiki/W": 4423,
      "ोष": 4424,
      "केंद्रशासित_प्रदेश": 4425,
      "iation": 4426,
      "_संघ": 4427,
      "▁అత్యధిక": 4428,
      ".php?": 4429,
      "ft": 4430,
      "▁[पुरालेखित": 4431,
      "ధి": 4432,
      "ृतीय": 4433,
      "▁all": 4434,
      "కాల": 4435,
      "ेतील": 4436,
      "\".": 4437,
      "\\_identifiers": 4438,
      "...": 4439,
      "-0-521-80904-7": 4440,
      "▁ఆఫ్": 4441,
      "▁दिन": 4442,
      "_in_": 4443,
      "icial": 4444,
      "▁comm": 4445,
      "ెహ": 4446,
      "cent": 4447,
      "](https://hi.wikipedia.org/wiki/भारत_का_": 4448,
      "_సం": 4449,
      "▁प्रामुख्याने": 4450,
      "▁[s": 4451,
      "ूरो": 4452,
      "ండియా": 4453,
      "ID": 4454,
      "▁अगस्त": 4455,
      "బాద్": 4456,
      "tit": 4457,
      "ार्ता:": 4458,
      "▁[ఢిల్లీ": 4459,
      "▁केंद्रशासित": 4460,
      "cri": 4461,
      "स](https://hi.wikipedia.org/wiki/": 4462,
      "कालीन": 4463,
      "icy": 4464,
      "लेल्या": 4465,
      "oin": 4466,
      "शक": 4467,
      "▁గాంధీ": 4468,
      "स्वातंत्र्य": 4469,
      "4](https://en.wikipedia.org/wiki/India#CITEREF": 4470,
      "▁ద": 4471,
      "](https://mr.wikipedia.org/wiki/तमिळनाडू": 4472,
      "oast": 4473,
      "ంతి": 4474,
      "ंची": 4475,
      "▁[2](https://en.wikipedia.org/wiki/India#cite_ref-": 4476,
      "▁./వర్గం:Wikipedia\\_articles\\_with\\_": 4477,
      "हरी": 4478,
      "onwe": 4479,
      "E0%B": 4480,
      "▁states": 4481,
      "▁1,": 4482,
      "सभ": 4483,
      "eat": 4484,
      "०१": 4485,
      "ౌక": 4486,
      "wor": 4487,
      "6).": 4488,
      "▁दो": 4489,
      "ూప": 4490,
      "▁जयंती": 4491,
      "avid": 4492,
      "▁प्रमुख": 4493,
      "300": 4494,
      "▁[1](https://en.wikipedia.org/wiki/India#cite_ref-": 4495,
      "▁लग": 4496,
      "ేంద్రపాలిత_ప్రాంత": 4497,
      "पृष्ठ": 4498,
      "rish": 4499,
      "धिकारिक": 4500,
      "▁अभ": 4501,
      "టిబె": 4502,
      "ports": 4503,
      "तील": 4504,
      "ూరు": 4505,
      "मू": 4506,
      "▁[ओ": 4507,
      "ార్లమె": 4508,
      "इंडिया": 4509,
      "ealth": 4510,
      "िरपे": 4511,
      "ర్యా": 4512,
      "▁साम्राज्य\")": 4513,
      "2023": 4514,
      "▁\"19": 4515,
      "वान": 4516,
      "arb": 4517,
      "▁ప్రాంతాలు": 4518,
      "▁प्रांत": 4519,
      "/0": 4520,
      "वायु": 4521,
      "public": 4522,
      "obb": 4523,
      "_ए": 4524,
      "Com": 4525,
      "New": 4526,
      "issi": 4527,
      "ీర్ణ": 4528,
      "▁दु": 4529,
      "भो": 4530,
      "▁దేశం": 4531,
      "ched": 4532,
      "Co": 4533,
      "ोळी": 4534,
      "ver": 4535,
      "-प": 4536,
      "గోళ": 4537,
      "act": 4538,
      "▁end": 4539,
      "▁संबंध": 4540,
      "▁केली": 4541,
      "नाटक": 4542,
      "भीम": 4543,
      "▁కాలంలో": 4544,
      "▁\"वर्ग:CS1": 4545,
      "read": 4546,
      "म्प": 4547,
      "▁కో": 4548,
      "union": 4549,
      "त्तीस": 4550,
      "నియా": 4551,
      "▁ई": 4552,
      "▁India\")\n\n": 4553,
      "लं": 4554,
      "మహ": 4555,
      "न्या": 4556,
      "▁2010](https://en.wikipedia.org/wiki/India#CITEREF": 4557,
      "लंका": 4558,
      "బడిన": 4559,
      "▁विष": 4560,
      "ughal": 4561,
      "on_": 4562,
      "▁వర్": 4563,
      "▁पार": 4564,
      "onwealth": 4565,
      "कट": 4566,
      "/http://www.": 4567,
      ".archive.org/web/": 4568,
      "▁अप्र": 4569,
      "▁BCE": 4570,
      "ूह": 4571,
      "_Informatic": 4572,
      "▁अथ": 4573,
      "emoc": 4574,
      "ార్లమెంట": 4575,
      "యాళ": 4576,
      "पूर्ण": 4577,
      "ర్‌": 4578,
      "धानी": 4579,
      "1–": 4580,
      "▁हुए": 4581,
      "Template": 4582,
      "ंगे": 4583,
      "udden": 4584,
      "राबाद": 4585,
      "▁మూ": 4586,
      "महाल": 4587,
      "▁two": 4588,
      "ैदराबाद": 4589,
      "తున్న": 4590,
      "▁लेणी": 4591,
      "_territ": 4592,
      "▁मेला\")": 4593,
      "IA": 4594,
      "ॅक": 4595,
      "▁It": 4596,
      "_का_": 4597,
      "ंतरराष्ट्रीय": 4598,
      "asia": 4599,
      "▁अम": 4600,
      "▁Development": 4601,
      "](https://mr.wikipedia.org/wiki/महाराष्ट्र": 4602,
      "▁(India)": 4603,
      "▁भाषाओं": 4604,
      "రాఠ": 4605,
      "▁[व": 4606,
      "change": 4607,
      "हैदराबाद": 4608,
      "–సా.శ.13": 4609,
      "ौर्य": 4610,
      "ortal": 4611,
      "िला": 4612,
      "▁भागात": 4613,
      "term": 4614,
      "hindi": 4615,
      "](https://te.wikipedia.org/wiki/భారతదేశంలో_": 4616,
      "▁\"तमिळनाडू": 4617,
      "ough": 4618,
      "one": 4619,
      "\n\n**": 4620,
      "olitics": 4621,
      "▁बहुतांशी": 4622,
      "▁had": 4623,
      "uthority": 4624,
      "reat": 4625,
      "िरपेक्ष": 4626,
      "ంధ్ర": 4627,
      "▁स्थानिक": 4628,
      "ed.).": 4629,
      "▁[हिन्दी](https://hi.wikipedia.org/wiki/": 4630,
      "యన": 4631,
      "=`": 4632,
      "▁Ass": 4633,
      "5/": 4634,
      "-g": 4635,
      "/p": 4636,
      "▁అధికారిక": 4637,
      "र्वो": 4638,
      "▁అయిన": 4639,
      "▁state": 4640,
      "▁कार्य": 4641,
      "గుర్": 4642,
      "_द": 4643,
      "86": 4644,
      "▁\"ओ": 4645,
      "ాల్దీవులు": 4646,
      "वाहरलाल": 4647,
      "ident": 4648,
      "▁करने": 4649,
      "stitution": 4650,
      "▁शै": 4651,
      "aksh": 4652,
      "हिमा": 4653,
      "▁सो": 4654,
      "](https://en.wikipedia.org/wiki/V": 4655,
      "దేశం": 4656,
      "ा\")": 4657,
      "Combined": 4658,
      "ल](https://hi.wikipedia.org/wiki/": 4659,
      "పాలన": 4660,
      "▁आशिया\")": 4661,
      "▁spe": 4662,
      "▁ప్రాంతం": 4663,
      "%28": 4664,
      "▁नी": 4665,
      "3,": 4666,
      "ख्खन": 4667,
      "▁\"V": 4668,
      "-108": 4669,
      "తీ": 4670,
      "▁आढ": 4671,
      "▁Congress": 4672,
      "_Informatics_C": 4673,
      "war": 4674,
      "aul": 4675,
      "▁म्हणून": 4676,
      "▁May": 4677,
      "5]](https://hi.wikipedia.org/wiki/भारत#cite_note-": 4678,
      "▁आक्रम": 4679,
      "▁[Metcalf": 4680,
      "देव": 4681,
      "ులు,": 4682,
      "▁([link](https://mr.wikipedia.org/wiki/वर्ग:CS1_maint:_": 4683,
      "oor": 4684,
      "ంతో": 4685,
      "▁अजून": 4686,
      "▁June": 4687,
      "▁शताब्": 4688,
      "](https://te.wikipedia.org/wiki/సి": 4689,
      "hara": 4690,
      "▁[Archived](https://web.archive.org/web/201": 4691,
      "linki": 4692,
      "డిప": 4693,
      "वृतीय": 4694,
      "▁చిన్న": 4695,
      "गस्ट": 4696,
      "2016": 4697,
      "in-": 4698,
      "బడ్డ": 4699,
      "-06": 4700,
      "_at": 4701,
      "▁केन्द्र": 4702,
      "క్రమ": 4703,
      "्वज": 4704,
      "ustral": 4705,
      "ुरो": 4706,
      "▁tradition": 4707,
      "లు?action=edit&redlink=1": 4708,
      "▁पर्य": 4709,
      "▁general": 4710,
      "ियां": 4711,
      "ుల్తా": 4712,
      "imes": 4713,
      "पान": 4714,
      "ుల్తాన": 4715,
      "▁[पाकिस्तान": 4716,
      ")\n": 4717,
      "ofindia.": 4718,
      "णिपुरी": 4719,
      "▁territories": 4720,
      "र्ष": 4721,
      "గర్": 4722,
      "छत्ती": 4723,
      "▁[978-0-19": 4724,
      "kh": 4725,
      "▁Nation": 4726,
      "▁वर्षांपूर्वी": 4727,
      "1997": 4728,
      "▁Nations": 4729,
      "▁संसद": 4730,
      "omin": 4731,
      "రాష్ట్రాలు,_క": 4732,
      "गाणि": 4733,
      "arle1994": 4734,
      "fr": 4735,
      "National_Informatics_C": 4736,
      "▁प्रस": 4737,
      "ced": 4738,
      "िवू": 4739,
      "y\")": 4740,
      "pdf": 4741,
      "ियाणा": 4742,
      "▁summit\")": 4743,
      "रेलू": 4744,
      "pdf)": 4745,
      "▁mo": 4746,
      "हरु": 4747,
      "umber": 4748,
      "स्ला": 4749,
      "మై": 4750,
      "▁भा": 4751,
      "](Special:BookSources/978-0-19": 4752,
      "_జాబితా": 4753,
      "Harle1994": 4754,
      "हन": 4755,
      "క్టో": 4756,
      "▁[महाराष्ट्र": 4757,
      "ecu": 4758,
      "▁దా": 4759,
      "▁दोन": 4760,
      "▁ev": 4761,
      "▁नहीं": 4762,
      "▁కాశ్మీరు": 4763,
      "नागाल": 4764,
      "ake": 4765,
      "▁कुल": 4766,
      "▁ప్రము": 4767,
      "मृत": 4768,
      "arti": 4769,
      "▁ठिक": 4770,
      "olicy": 4771,
      "EditPage": 4772,
      "mber": 4773,
      "▁रु": 4774,
      "ron": 4775,
      "EditPage/": 4776,
      "ic.in": 4777,
      "parameter": 4778,
      "alley": 4779,
      "झार": 4780,
      "▁—": 4781,
      "sug": 4782,
      "▁[O": 4783,
      "▁रहा": 4784,
      "▁పట్టణ": 4785,
      "ers,": 4786,
      "श्चिमी": 4787,
      "330px-": 4788,
      "ors": 4789,
      "▁population": 4790,
      "ంటుంది.": 4791,
      "▁आहे,": 4792,
      "ector": 4793,
      "clm": 4794,
      "ష్టు": 4795,
      "ावे": 4796,
      "](https://en.wikipedia.org/wiki/The": 4797,
      ".as": 4798,
      "గష్టు": 4799,
      "दाद": 4800,
      "▁artic": 4801,
      "▁है।[[": 4802,
      "▁ప్రతి": 4803,
      "स.ओ": 4804,
      "▁became": 4805,
      "▁चुनाव": 4806,
      "ర్ధిక": 4807,
      "कू": 4808,
      "ussia": 4809,
      "▁नद": 4810,
      "ంచి": 4811,
      "](https://mr.wikipedia.org/wiki/पाकिस्तान": 4812,
      "▁includ": 4813,
      "▁[पुरालेखित](https://web.archive.org/web/201": 4814,
      "](https://te.wikipedia.org/wiki/ఆ": 4815,
      "▁[तमिळनाडू": 4816,
      "istor": 4817,
      "▁సాధించ": 4818,
      "१९४७": 4819,
      "▁war": 4820,
      "లయాళ": 4821,
      "वेरूळची": 4822,
      "5).": 4823,
      "ెంగ": 4824,
      "06": 4825,
      "](https://en.wikipedia.org/wiki/Economy": 4826,
      "_का": 4827,
      "శ్": 4828,
      "▁\"बंगाल": 4829,
      "clo": 4830,
      "clm.nic.in/": 4831,
      "శ్వా": 4832,
      "गाणिस्तान": 4833,
      "_%28": 4834,
      "nclm.nic.in/": 4835,
      "फगाणिस्तान": 4836,
      "theast": 4837,
      "निक": 4838,
      "▁టెక్నాలజీ": 4839,
      "डाख": 4840,
      "ale": 4841,
      "](https://te.wikipedia.org/wiki/ఢిల్లీ": 4842,
      "विषुव": 4843,
      "Indus": 4844,
      "EditPage/साँचा:": 4845,
      "▁up": 4846,
      "▁उद्यान": 4847,
      "నేష": 4848,
      "నేషనల్": 4849,
      "▁dec": 4850,
      "विशेष:EditPage/साँचा:": 4851,
      "96": 4852,
      "1967": 4853,
      "▁[p": 4854,
      "](https://hi.wikipedia.org/wiki/आ": 4855,
      "mplate_": 4856,
      "_3": 4857,
      "▁16": 4858,
      "▁ప్రముఖ": 4859,
      "](https://mr.wikipedia.org/wiki/बंगाल": 4860,
      "▁\"Economy": 4861,
      "89": 4862,
      "థి": 4863,
      "ुरोप": 4864,
      "▁\"Special:BookSources/978-0-19": 4865,
      "गणराज्य": 4866,
      "wali": 4867,
      "▁[m": 4868,
      "िस्तान": 4869,
      "ండమా": 4870,
      "▁व्य": 4871,
      "riod": 4872,
      "ం](https://te.wikipedia.org/wiki/భారతీయ": 4873,
      "णारे": 4874,
      "-t": 4875,
      "▁प्राप्त": 4876,
      "నుమ": 4877,
      "▁हिं": 4878,
      "val": 4879,
      "22-": 4880,
      "_च": 4881,
      "akh": 4882,
      "స్\")": 4883,
      "▁सामाज": 4884,
      "ivil": 4885,
      "_उ": 4886,
      "ృద్ధి": 4887,
      "▁[↑](https://mr.wikipedia.org/wiki/भारत#cite_ref-3": 4888,
      "ember": 4889,
      "న్నిక": 4890,
      "छत्तीस": 4891,
      "rote": 4892,
      "▁25": 4893,
      "▁रा": 4894,
      "leg": 4895,
      "▁मेला](https://hi.wikipedia.org/wiki/": 4896,
      "వందే": 4897,
      "ालदीव": 4898,
      "chool": 4899,
      "_9": 4900,
      "దేశాల": 4901,
      "atar": 4902,
      "▁రో": 4903,
      "शोक": 4904,
      "ms": 4905,
      "मालय": 4906,
      "రంగ": 4907,
      "फे": 4908,
      "](https://en.wikipedia.org/wiki/O": 4909,
      "तट": 4910,
      "▁నాగరికత": 4911,
      "▁भूम": 4912,
      "దేశాలు": 4913,
      "क्षेत्रफळानुसार": 4914,
      "c/c": 4915,
      "▁करण्यात": 4916,
      "▁(identifier)\"):[10.": 4917,
      "र्वोच्च": 4918,
      "భర": 4919,
      "रेंद्र": 4920,
      "3](https://en.wikipedia.org/wiki/India#CITEREF": 4921,
      "▁రాజ్యం](https://te.wikipedia.org/wiki/": 4922,
      "्रेल": 4923,
      "_(India)": 4924,
      "गल": 4925,
      "mbol": 4926,
      "ड\")": 4927,
      "▁[India": 4928,
      "ंह": 4929,
      "▁వారస": 4930,
      "rganisation": 4931,
      "▁రవాణా": 4932,
      "दुचेरी": 4933,
      "ised": 4934,
      "▁మన": 4935,
      "द्दुचेरी": 4936,
      "ner": 4937,
      "ीपी": 4938,
      "ంది": 4939,
      "पुद्दुचेरी": 4940,
      "-17": 4941,
      "-108-6": 4942,
      "%E0%B": 4943,
      "ాల్లో": 4944,
      "imalay": 4945,
      "▁कारण": 4946,
      "▁ఏర్ప": 4947,
      "र्देश": 4948,
      "▁\"Doi": 4949,
      "](https://hi.wikipedia.org/wiki/ओ": 4950,
      "▁ప్రభుత్": 4951,
      "▁unrecognized": 4952,
      "eral_": 4953,
      "▁ప్రకారం": 4954,
      "्यांना": 4955,
      "](https://en.wikipedia.org/wiki/Doi": 4956,
      "▁(సా.శ.15": 4957,
      "sugge": 4958,
      "](https://en.wikipedia.org/wiki/Doi_(identifier)": 4959,
      "▁\"तमिळनाडू\")": 4960,
      "doi](https://en.wikipedia.org/wiki/Doi_(identifier)": 4961,
      "▁[पंजाब": 4962,
      "్రై": 4963,
      "्राय": 4964,
      "▁[doi](https://en.wikipedia.org/wiki/Doi_(identifier)": 4965,
      "▁उत्पाद": 4966,
      "ternational": 4967,
      "▁होती.": 4968,
      "_f": 4969,
      "▁2021": 4970,
      "▁\"च": 4971,
      "Asia": 4972,
      "लग": 4973,
      "National_Informatics_Centre2005": 4974,
      "टि": 4975,
      "▁caste": 4976,
      "-882": 4977,
      "her": 4978,
      "▁[*A": 4979,
      "▁బహు": 4980,
      "gnor": 4981,
      "▁en": 4982,
      "ंग्रेज़ी](https://hi.wikipedia.org/wiki/अ": 4983,
      "ల్వే": 4984,
      "gnored": 4985,
      "indust": 4986,
      "-0-19-882": 4987,
      "▁ప్రస్తు": 4988,
      "▁नगर": 4989,
      "e,": 4990,
      "प्रा": 4991,
      "▁రెండు": 4992,
      "oram": 4993,
      "▁जनगणना": 4994,
      "డో": 4995,
      "हान": 4996,
      "/india": 4997,
      "ంధ్రప్రదేశ్": 4998,
      "▁तिस": 4999,
      "itary": 5000,
      "074": 5001,
      "స్య": 5002,
      "ooperation": 5003,
      "ట్రో": 5004,
      "▁[ह": 5005,
      "](https://doi.org/10.": 5006,
      "▁जिसमें": 5007,
      "కుడు": 5008,
      "▁text": 5009,
      "▁करोड़": 5010,
      "▁వ్యాసం:": 5011,
      "ंग्रहि": 5012,
      "1/": 5013,
      "నె": 5014,
      "▁संग्रहि": 5015,
      "▁j": 5016,
      "फल": 5017,
      "▁బెంగ": 5018,
      "apit": 5019,
      "▁రంగ": 5020,
      "▁एकूण": 5021,
      "CN": 5022,
      "ोर्ड": 5023,
      ",NGDP": 5024,
      "प्पा": 5025,
      "CO": 5026,
      "ीच": 5027,
      "ంపి": 5028,
      "र्द्र": 5029,
      "min": 5030,
      "ెలవు": 5031,
      "दादरा": 5032,
      "▁ac": 5033,
      "ब्ब": 5034,
      "▁కి": 5035,
      "डॉ": 5036,
      "roups": 5037,
      "వార": 5038,
      "मण": 5039,
      "_2": 5040,
      "oriti": 5041,
      "▁తరువా": 5042,
      "▁am": 5043,
      "▁संस्कृति": 5044,
      "▁సరిహద్దు": 5045,
      "▁पाव": 5046,
      "ria": 5047,
      "_मेला?action=edit&redlink=1": 5048,
      "▁స్వాతంత్ర్య": 5049,
      "▁ग्र": 5050,
      "▁BRICS": 5051,
      "_मंदिर": 5052,
      "enn": 5053,
      "स.ओ.": 5054,
      "abad": 5055,
      "074-108-6": 5056,
      "-वेरूळची": 5057,
      "Uttar": 5058,
      "▁स्मारक": 5059,
      "_Island": 5060,
      "▁राजनी": 5061,
      "र्सिट": 5062,
      "ంగ్లీషు": 5063,
      "-पाकिस्तान": 5064,
      "al_P": 5065,
      "p?": 5066,
      "శీ": 5067,
      "han": 5068,
      "/A": 5069,
      "రాష్ట్రాలు,_కేంద్రపాలిత_ప్రాంత": 5070,
      "ोवा": 5071,
      "73": 5072,
      "san": 5073,
      "itec": 5074,
      "▁బా": 5075,
      "▁५": 5076,
      "▁National": 5077,
      "वित": 5078,
      "ामध्ये": 5079,
      "uis": 5080,
      "బెంగాల్": 5081,
      "](https://mr.wikipedia.org/wiki/पंजाब": 5082,
      "▁अथवा": 5083,
      "▁March": 5084,
      "-11162": 5085,
      "▁\"[": 5086,
      "ignored": 5087,
      "harat": 5088,
      "▁दि": 5089,
      "జనవరి": 5090,
      "सून": 5091,
      "నేపాల్": 5092,
      "▁भारताने": 5093,
      "itecture": 5094,
      "-78074-108-6": 5095,
      "▁मत": 5096,
      "▁sup": 5097,
      "-1-78074-108-6": 5098,
      "▁మొదల": 5099,
      "▁अशी": 5100,
      "▁Act": 5101,
      "▁कश्मीर": 5102,
      "▁आढळ": 5103,
      "anuary": 5104,
      "-विज्ञान": 5105,
      "ెన్న": 5106,
      "२६": 5107,
      "ose": 5108,
      "–సా.శ.6": 5109,
      "ंपी": 5110,
      "▁modern": 5111,
      "ूनिवर्सिट": 5112,
      "టర్": 5113,
      "य.एस.ओ.": 5114,
      "ince": 5115,
      "▁इन": 5116,
      "వెను": 5117,
      "▁(पूर्वी": 5118,
      "yayan": 5119,
      "5,": 5120,
      "రాన్": 5121,
      "atsyayan": 5122,
      "](https://hi.wikipedia.org/wiki/च": 5123,
      "▁कमी": 5124,
      "▁Plate": 5125,
      "బెంగాలీ": 5126,
      "-11": 5127,
      "▁\"पंजाब": 5128,
      "ai_": 5129,
      "ंबे": 5130,
      "epublic": 5131,
      "▁पर्वत": 5132,
      "PG": 5133,
      "ऑस्ट": 5134,
      "▁mil": 5135,
      "लेट": 5136,
      "▁Hind": 5137,
      "हेंज": 5138,
      "▁und": 5139,
      "न्दिर": 5140,
      "ini": 5141,
      "तेलंग": 5142,
      "ea": 5143,
      "तै": 5144,
      "ultan": 5145,
      "▁Language": 5146,
      "](https://te.wikipedia.org/wiki/G": 5147,
      "▁सुरू": 5148,
      "isher2018": 5149,
      "गोआ": 5150,
      "ణిపూ": 5151,
      "पेक्षा": 5152,
      "Fisher2018": 5153,
      "View": 5154,
      "▁घड": 5155,
      "AsherTalbot2008": 5156,
      "त्व": 5157,
      "in_M": 5158,
      "▁मानवी": 5159,
      "▁million": 5160,
      "ुख्य": 5161,
      "al_in_M": 5162,
      "वेली": 5163,
      "▁Union": 5164,
      "ैन्य": 5165,
      "al_in_March": 5166,
      "▁जास्त": 5167,
      "7](https://en.wikipedia.org/wiki/India#CITEREF": 5168,
      "र्थव्यवस्था": 5169,
      "rogr": 5170,
      "knowindia": 5171,
      "raven1997": 5172,
      "▁[अंग्रेज़ी](https://hi.wikipedia.org/wiki/अ": 5173,
      "▁2016": 5174,
      ":आ": 5175,
      "Craven1997": 5176,
      "87": 5177,
      "Go": 5178,
      "ritannica": 5179,
      ".jpg/330px-": 5180,
      "▁ref": 5181,
      "హాయం:": 5182,
      "▁rate": 5183,
      "ाद्वीप": 5184,
      "ేతి": 5185,
      "str": 5186,
      "ండా": 5187,
      "हिमाचल": 5188,
      "be": 5189,
      "फ्रीका": 5190,
      "▁ఉంట": 5191,
      "जिंठा-वेरूळची": 5192,
      "ricket": 5193,
      "▁बा": 5194,
      "పాకిస్థాన్": 5195,
      "▁आण": 5196,
      "▁es": 5197,
      ".s": 5198,
      "ofil": 5199,
      "▁वैशि": 5200,
      "9).": 5201,
      "▁आधिकारिक": 5202,
      "▁वैशिष्ट": 5203,
      "▁Population": 5204,
      "ांधी": 5205,
      "rac": 5206,
      "स\")": 5207,
      "▁मध्य": 5208,
      "ainting": 5209,
      "లడ": 5210,
      "cord": 5211,
      "▁अनु": 5212,
      "క్షరా": 5213,
      "वी_": 5214,
      "5-0)": 5215,
      "लयाल": 5216,
      "▁original](http://www.": 5217,
      "ऑस्ट्रेल": 5218,
      "cyclo": 5219,
      "करण": 5220,
      "ंदीगढ": 5221,
      "2-0)": 5222,
      "log": 5223,
      "india/": 5224,
      "▁ज्या": 5225,
      "ann": 5226,
      "▁कई": 5227,
      "ोबत": 5228,
      "eld": 5229,
      "▁से](http://www.": 5230,
      "िळक": 5231,
      "tell": 5232,
      "▁सद": 5233,
      "ेघ": 5234,
      "induism": 5235,
      "ेघालय": 5236,
      "slam": 5237,
      "905-8": 5238,
      "▁later": 5239,
      "_व": 5240,
      "ोरम": 5241,
      "athak": 5242,
      "-1-107-11162": 5243,
      "118": 5244,
      "-1-107-11162-2": 5245,
      "वरील": 5246,
      "3]](https://en.wikipedia.org/wiki/India#cite_note-FOOTNOTE": 5247,
      "ईरा": 5248,
      "शन": 5249,
      "ehru": 5250,
      "▁Min": 5251,
      "ahar": 5252,
      "छत्तीसगढ": 5253,
      "9-0)": 5254,
      "-0-19-882905-8": 5255,
      "▁पंतप्रधान": 5256,
      "▁\"Special:BookSources/978-0-": 5257,
      "bin": 5258,
      "](https://mr.wikipedia.org/wiki/आसाम": 5259,
      "▁such": 5260,
      "िस्ट": 5261,
      "▁भारताचे": 5262,
      "_W": 5263,
      "▁बीच": 5264,
      "▁सामाजिक": 5265,
      "▁[V": 5266,
      "▁गणराज्यचे": 5267,
      "i,": 5268,
      "-13": 5269,
      "actbook": 5270,
      "▁Sanskrit": 5271,
      "](https://en.wikipedia.org/wiki/South_Asia": 5272,
      "▁[भ": 5273,
      "](https://en.wikipedia.org/wiki/I": 5274,
      "▁गु": 5275,
      "▁classical": 5276,
      "▁जी": 5277,
      "▁नाट": 5278,
      "ode": 5279,
      "bined": 5280,
      "bi": 5281,
      "क्षर": 5282,
      "जनसंख्या": 5283,
      "िझोरम": 5284,
      "▁ra": 5285,
      "▁शक्ति": 5286,
      "▁[दक्षिण": 5287,
      "_Sh": 5288,
      "काश": 5289,
      "हाराज": 5290,
      "▁St": 5291,
      "▁[बंगाल": 5292,
      "▁period": 5293,
      "पि": 5294,
      "थार": 5295,
      "age/": 5296,
      "OL": 5297,
      "▁[मूळ": 5298,
      "%29": 5299,
      "▁मुघल": 5300,
      "igious": 5301,
      "▁पुरा": 5302,
      "▁वापर": 5303,
      "idge": 5304,
      "झारखंड": 5305,
      "eal": 5306,
      "ambr": 5307,
      "▁(19": 5308,
      "▁Cambr": 5309,
      "बट": 5310,
      "\n\nM": 5311,
      "▁[वि": 5312,
      "ॉलर": 5313,
      "\n\nMain": 5314,
      "भ्यता": 5315,
      "](https://mr.wikipedia.org/wiki/च": 5316,
      "▁ap": 5317,
      "▁लेख:": 5318,
      "▁\"दक्षिण": 5319,
      "ovember": 5320,
      "ress,": 5321,
      "▁there": 5322,
      "▁काश्मीर": 5323,
      "ecember": 5324,
      "▁शताब्दी": 5325,
      "s\\_": 5326,
      "▁Constitution": 5327,
      "▁\"हिन्दी\")": 5328,
      "हरियाणा": 5329,
      "atsyayan-l": 5330,
      "िख": 5331,
      "रम": 5332,
      "vatsyayan-l": 5333,
      "▁सध्या": 5334,
      "ung": 5335,
      "ॉक": 5336,
      "▁शहर": 5337,
      "-B": 5338,
      "▁स्थित": 5339,
      "▁करतात.": 5340,
      "3.\n": 5341,
      "हिंदू": 5342,
      "rg": 5343,
      "▁Cambridge": 5344,
      "▁मंत्र": 5345,
      "now": 5346,
      "त्तराखण्ड": 5347,
      "ण्यास": 5348,
      "▁War": 5349,
      "षाण": 5350,
      "्यांचा": 5351,
      "ublishing": 5352,
      "▁\"आसाम": 5353,
      "-f": 5354,
      "१]](https://mr.wikipedia.org/wiki/भारत#cite_note-": 5355,
      ",[[": 5356,
      "वल": 5357,
      "ताजमहाल": 5358,
      "embly": 5359,
      "२०": 5360,
      "▁January": 5361,
      "▁राज्य\")": 5362,
      "▁शत": 5363,
      "▁*The": 5364,
      "-in-": 5365,
      "▁स्वातंत्र्य": 5366,
      "ities": 5367,
      "▁शिक्षा": 5368,
      "▁कोर": 5369,
      "▁one": 5370,
      "ंडी": 5371,
      "_of_the": 5372,
      "ंडीगढ़": 5373,
      "▁[978-0-": 5374,
      "िद्ध": 5375,
      "ebru": 5376,
      "▁अप्रैल": 5377,
      "ebruary": 5378,
      "](https://hi.wikipedia.org/wiki/ल": 5379,
      "Ge": 5380,
      "adh": 5381,
      "ंबेड": 5382,
      "▁art": 5383,
      "मुख्य": 5384,
      "ंबेडकर": 5385,
      "vatsyayan-lord": 5386,
      "▁\"पाकिस्तान": 5387,
      "_BRICS": 5388,
      "▁\"पाकिस्तान\")": 5389,
      "▁जनसंख्या": 5390,
      "▁मह": 5391,
      "](Special:BookSources/978-0-": 5392,
      "]](https://hi.wikipedia.org/wiki/भारत#cite_note-FOOTNOTESingh2009": 5393,
      "ारा": 5394,
      "arh": 5395,
      "▁उत्प": 5396,
      "Spear": 5397,
      "▁क्षेत्रीय": 5398,
      "with_": 5399,
      "ras": 5400,
      "िक्किम": 5401,
      "1990": 5402,
      "]](https://hi.wikipedia.org/wiki/भारत#cite_note-FOOTNOTEStein1998": 5403,
      "ोंड": 5404,
      "arna": 5405,
      "▁संग्रहित.": 5406,
      "िम": 5407,
      "owland": 5408,
      "ाबाद": 5409,
      "rits": 5410,
      "versi": 5411,
      "ंदर": 5412,
      "_t": 5413,
      "▁\"उत्तर": 5414,
      "ncyclo": 5415,
      "usin": 5416,
      "हू": 5417,
      "▁2019.": 5418,
      "▁[मध्य": 5419,
      "▁[t": 5420,
      "▁लोग": 5421,
      "▁वाळवंट": 5422,
      "3).": 5423,
      "जम्मू": 5424,
      "स्कार": 5425,
      "rar": 5426,
      "▁वर्ग": 5427,
      "ांचे": 5428,
      "eds.": 5429,
      "ानव": 5430,
      "ांनी": 5431,
      "▁हिमालय": 5432,
      "▁than": 5433,
      "▁चळव": 5434,
      "minist": 5435,
      "ॉलिवू": 5436,
      "arly": 5437,
      "ेशन": 5438,
      "▁साम्राज्या": 5439,
      "come": 5440,
      "▁Uni": 5441,
      "नंतर": 5442,
      "ald": 5443,
      "▁सूचना": 5444,
      "▁धार": 5445,
      "Fl": 5446,
      "▁em": 5447,
      "▁दशक": 5448,
      "▁वर": 5449,
      "▁2011.\n-": 5450,
      "▁कु": 5451,
      "ामुळे": 5452,
      "andard": 5453,
      "_से": 5454,
      ".svg": 5455,
      "iev": 5456,
      "लों": 5457,
      "ोदडो": 5458,
      "egion": 5459,
      "▁महासागर": 5460,
      "▁पारंप": 5461,
      "▁ci": 5462,
      "▁गेल्या": 5463,
      "4-0)": 5464,
      "महाद्वीप": 5465,
      "▁प्रजासत्ताक": 5466,
      "िनेमा": 5467,
      "▁बौद्ध": 5468,
      "▁6": 5469,
      "/index.php?": 5470,
      "▁northern": 5471,
      "▁Universi": 5472,
      "](https://mr.wikipedia.org/wiki/बौद्ध": 5473,
      "▁सक": 5474,
      "auth": 5475,
      "atak": 5476,
      "e-": 5477,
      "right": 5478,
      "▁स्था": 5479,
      "खी": 5480,
      "duction": 5481,
      "६६-": 5482,
      "C).": 5483,
      "IU": 5484,
      "▁(PDF).": 5485,
      "](https://hi.wikipedia.org/wiki/ग": 5486,
      "त्रूटी#": 5487,
      "▁national": 5488,
      "_त्रूटी#": 5489,
      "rowth": 5490,
      "ेली": 5491,
      "](https://mr.wikipedia.org/wiki/सहाय्य:CS1": 5492,
      "▁[*The": 5493,
      "▁शु": 5494,
      "हेंजोदडो": 5495,
      "astern": 5496,
      "श्य": 5497,
      "_घ": 5498,
      "▁who": 5499,
      "ज्ज": 5500,
      "स्ति": 5501,
      "](https://en.wikipedia.org/wiki/Economy_of_": 5502,
      "](https://mr.wikipedia.org/wiki/भ": 5503,
      "▁2018](https://en.wikipedia.org/wiki/India#CITEREF": 5504,
      "र्देशांक": 5505,
      "▁south": 5506,
      "▁राजवंश": 5507,
      "▁९": 5508,
      "▁mathe": 5509,
      "ी.": 5510,
      "त्यादी": 5511,
      "](https://en.wikipedia.org/wiki/List_of_countries": 5512,
      "▁था।": 5513,
      "मळ": 5514,
      "uddhism": 5515,
      "राजस्थान](https://mr.wikipedia.org/wiki/": 5516,
      "econd": 5517,
      "](https://mr.wikipedia.org/wiki/दक्षिण": 5518,
      "esearch": 5519,
      "भारत)": 5520,
      "▁म्हणजे": 5521,
      "▁(*": 5522,
      "▁नका": 5523,
      "7).": 5524,
      "41": 5525,
      "\n\nभारतात": 5526,
      "▁increas": 5527,
      "साम](https://mr.wikipedia.org/wiki/आसाम": 5528,
      "▁people": 5529,
      "्यों": 5530,
      "7/": 5531,
      "2000": 5532,
      "तमिलनाडु": 5533,
      "▁नदी\"),": 5534,
      "sci": 5535,
      "ould": 5536,
      "ियार": 5537,
      "युद्ध": 5538,
      "Dikshit": 5539,
      "a/": 5540,
      "ुष्": 5541,
      "Empire": 5542,
      "tro": 5543,
      "nt": 5544,
      "%E0%A4%B0": 5545,
      "oy": 5546,
      "▁[हिन्दी](https://hi.wikipedia.org/wiki/हिन्दी": 5547,
      "▁अस्ति": 5548,
      "ingdom": 5549,
      "ोलन": 5550,
      "▁काल": 5551,
      "teen": 5552,
      "षय": 5553,
      "ाताळ": 5554,
      "79": 5555,
      "ांग्लादेश": 5556,
      "ang1967": 5557,
      "2012": 5558,
      "▁Press,": 5559,
      "ृक्ष": 5560,
      "▁Press](https://en.wikipedia.org/wiki/": 5561,
      "हित": 5562,
      "▁India:": 5563,
      "गू": 5564,
      "ॉलिवूड": 5565,
      "can": 5566,
      "तृत": 5567,
      "ross": 5568,
      "हरा": 5569,
      "वर्ण": 5570,
      "▁emp": 5571,
      "cat": 5572,
      "▁पुरस्कार": 5573,
      "DikshitS": 5574,
      "-201": 5575,
      "le=": 5576,
      "DikshitSchwartzberg": 5577,
      "](https://mr.wikipedia.org/wiki/उ": 5578,
      "Ins": 5579,
      "नगर": 5580,
      "▁अजूनही": 5581,
      "▁(PDF)": 5582,
      "▁जाती": 5583,
      "▁केली.": 5584,
      "55": 5585,
      "▁राजक": 5586,
      "Indones": 5587,
      "%E0%A4%BE%E0%A4%9": 5588,
      "6-2": 5589,
      "को": 5590,
      "▁सर्वो": 5591,
      "osed": 5592,
      "▁भवन": 5593,
      "▁many": 5594,
      "itsch": 5595,
      "Al": 5596,
      "▁आर्थ": 5597,
      "▁प्रेस": 5598,
      ";\n\n": 5599,
      "▁religion": 5600,
      "5_": 5601,
      "Ch": 5602,
      "-14": 5603,
      "mage": 5604,
      "-to-": 5605,
      "-20": 5606,
      "ical_": 5607,
      "परमाणु": 5608,
      "_भारतीय": 5609,
      "usiness": 5610,
      "स्थाप": 5611,
      "vers": 5612,
      "६]](https://mr.wikipedia.org/wiki/भारत#cite_note-": 5613,
      "ade": 5614,
      "/ar": 5615,
      "ij": 5616,
      "\n\nमुख्य": 5617,
      "Mon": 5618,
      "▁चुनावों": 5619,
      "शो": 5620,
      "_h": 5621,
      "eport": 5622,
      "eds.).": 5623,
      "ृद्ध": 5624,
      "▁(eds.).": 5625,
      "▁प्रौद्योगिक": 5626,
      "ग्रे": 5627,
      "▁among": 5628,
      "▁सैन्य": 5629,
      "▁धार्म": 5630,
      "urk": 5631,
      "▁प्रदेशात": 5632,
      "1]](https://en.wikipedia.org/wiki/India#cite_note-FOOTNOTE": 5633,
      "▁पर्व": 5634,
      "European": 5635,
      "्वतंत्रता": 5636,
      "▁महा": 5637,
      "▁अव": 5638,
      "्या\")": 5639,
      "▁English": 5640,
      "▁पहले": 5641,
      "Bio": 5642,
      "eth": 5643,
      "Biodi": 5644,
      "utra": 5645,
      "▁ऋ": 5646,
      "ple": 5647,
      "ब्बत": 5648,
      "▁ऋष": 5649,
      "▁ro": 5650,
      "▁महाराष्ट्र": 5651,
      "olk": 5652,
      "2/": 5653,
      "ammu": 5654,
      "▁भारत\")": 5655,
      "](https://mr.wikipedia.org/wiki/सहाय्य:CS1_त्रूटी#": 5656,
      "▁industry": 5657,
      "▁निर्माण": 5658,
      "▁यात": 5659,
      "rative": 5660,
      "_के_आधार_पर_भारत_के_राज्यों_की_सूची": 5661,
      "ast_Asia": 5662,
      "गेट": 5663,
      "▁rule": 5664,
      "gar": 5665,
      "वाळवंट": 5666,
      "urn": 5667,
      "▁[महाराष्ट्र](https://mr.wikipedia.org/wiki/महाराष्ट्र": 5668,
      "▁February": 5669,
      "हाय्य](https://mr.wikipedia.org/wiki/सहाय्य:CS1_त्रूटी#": 5670,
      "▁long": 5671,
      "सहाय्य](https://mr.wikipedia.org/wiki/सहाय्य:CS1_त्रूटी#": 5672,
      "eligion": 5673,
      "न्नई": 5674,
      "▁([सहाय्य](https://mr.wikipedia.org/wiki/सहाय्य:CS1_त्रूटी#": 5675,
      "_in_South_Asia": 5676,
      "▁विदेश": 5677,
      "le:": 5678,
      "97": 5679,
      "/d": 5680,
      "ोस": 5681,
      "▁Afric": 5682,
      "यत": 5683,
      "▁मे": 5684,
      "hy": 5685,
      "lia": 5686,
      "▁शतक": 5687,
      "2019": 5688,
      "वाह": 5689,
      "rol": 5690,
      "वास": 5691,
      "▁पर्यंत": 5692,
      "arket": 5693,
      "धारण": 5694,
      "▁\"India": 5695,
      "▁$": 5696,
      "▁देश\")": 5697,
      "ankar": 5698,
      "\"](http://": 5699,
      "%E0%A5%8D": 5700,
      "ependent": 5701,
      "▁उन": 5702,
      "१६६-": 5703,
      "ast_Asia_S": 5704,
      "_और_संघ": 5705,
      "](https://mr.wikipedia.org/wiki/मध्य": 5706,
      "Hindi": 5707,
      "▁मौ": 5708,
      "णात": 5709,
      "ज्ञाप": 5710,
      "▁शक": 5711,
      "बेट": 5712,
      "▁रंग": 5713,
      "_19": 5714,
      "bal": 5715,
      "भु": 5716,
      "▁प्रकारच्या": 5717,
      "othermund": 5718,
      "-0)\n": 5719,
      "डप्पा": 5720,
      "-re": 5721,
      "छत्तीसगढ़": 5722,
      "ोहेंजोदडो": 5723,
      "▁States": 5724,
      "ंग्रेज़ी_भाषा": 5725,
      "▁इत्यादी": 5726,
      "bh": 5727,
      "ये": 5728,
      "](https://en.wikipedia.org/wiki/Indo-": 5729,
      "▁कुछ": 5730,
      "▁\"बौद्ध": 5731,
      "ineering": 5732,
      "काता": 5733,
      "▁त्यामुळे": 5734,
      "ilg": 5735,
      "ोलकाता": 5736,
      "मेव": 5737,
      "ast_Asia_Summit": 5738,
      "त्यमेव": 5739,
      "▁\"Indo-": 5740,
      "ग्व": 5741,
      "▁गेली.": 5742,
      "utt": 5743,
      "द्दल": 5744,
      "2).": 5745,
      "_Indian": 5746,
      "०]](https://mr.wikipedia.org/wiki/भारत#cite_note-": 5747,
      "tig": 5748,
      "णाऱ्या": 5749,
      "6_": 5750,
      "थारचे": 5751,
      "ependence": 5752,
      "▁युग": 5753,
      "▁आहे.[[१": 5754,
      "ujarat": 5755,
      "ुष्क": 5756,
      "ynast": 5757,
      "बेटका": 5758,
      "िंह": 5759,
      "6]](https://en.wikipedia.org/wiki/India#cite_note-": 5760,
      "uistic": 5761,
      "र्यंत": 5762,
      "ोबर": 5763,
      "1-0)": 5764,
      "▁ओर": 5765,
      "▁वनस्": 5766,
      "rown": 5767,
      "▁2004": 5768,
      "pee": 5769,
      "ी](https://hi.wikipedia.org/wiki/द": 5770,
      "▁वर्षात": 5771,
      "jan": 5772,
      "▁पुरालेखित।,": 5773,
      "▁व्यावसाय": 5774,
      "iri": 5775,
      "▁व्यावसायिक": 5776,
      "▁under": 5777,
      "हरिया": 5778,
      "_for": 5779,
      "▁नाटके": 5780,
      "umbai": 5781,
      "orities": 5782,
      "ument": 5783,
      "▁कॉ": 5784,
      "▁वाघ": 5785,
      "▁economic": 5786,
      "म्राट": 5787,
      "nam": 5788,
      "▁विस्त": 5789,
      "▁उपसागर": 5790,
      "loy": 5791,
      "2017": 5792,
      "▁[*India": 5793,
      "▁पदवी": 5794,
      "▁Arab": 5795,
      "अभि": 5796,
      "▁शहरी": 5797,
      "अभिज्ञाप": 5798,
      "%;\n\n": 5799,
      "ests": 5800,
      "अभिज्ञापक": 5801,
      "▁वेगळे": 5802,
      ",000": 5803,
      "▁[नवी": 5804,
      "ives": 5805,
      ".[[2": 5806,
      "▁·": 5807,
      "▁भरत": 5808,
      "az": 5809,
      "१८": 5810,
      "शीख": 5811,
      "▁[\"India": 5812,
      "](https://web.archive.org/web/200": 5813,
      "▁high": 5814,
      "▁साल": 5815,
      "Biodivers": 5816,
      "ains": 5817,
      "भीमबेटका": 5818,
      "Biodiversity": 5819,
      "ar,": 5820,
      "tek": 5821,
      "-317": 5822,
      "▁क्षेत्रों": 5823,
      "Montek": 5824,
      "rovision": 5825,
      "जं": 5826,
      "▁ह्या": 5827,
      "omas": 5828,
      "फोर्ड": 5829,
      "▁साली": 5830,
      "International": 5831,
      "क्सफोर्ड": 5832,
      "पया": 5833,
      "81": 5834,
      "ट्ट": 5835,
      "ins": 5836,
      "▁भूगोल": 5837,
      "arnatak": 5838,
      "den_": 5839,
      "ourn": 5840,
      "यते": 5841,
      "▁out": 5842,
      "टान": 5843,
      "शियाई": 5844,
      "▁original](https://www.": 5845,
      "▁[अंग्रेज़ी](https://hi.wikipedia.org/wiki/अंग्रेज़ी_भाषा": 5846,
      "ोह": 5847,
      "fgh": 5848,
      "थिल": 5849,
      "▁सिंधू": 5850,
      "overe": 5851,
      "ैथिल": 5852,
      "वर्ष": 5853,
      "lect": 5854,
      "समी": 5855,
      "▁exp": 5856,
      "▁मेला\"),": 5857,
      "▁दिवस": 5858,
      "*)": 5859,
      "ूर्वी": 5860,
      "राजस्थान](https://mr.wikipedia.org/wiki/राजस्थान": 5861,
      "▁British": 5862,
      "▁आर्थिक": 5863,
      "way": 5864,
      "busines": 5865,
      "वट": 5866,
      "own": 5867,
      "](https://hi.wikipedia.org/wiki/न": 5868,
      "▁निर्मिती": 5869,
      "inance": 5870,
      "d/": 5871,
      "▁\"Oxford": 5872,
      "▁13": 5873,
      "▁नेतृत": 5874,
      "ांवर": 5875,
      "▁2021.": 5876,
      "ड़ियाँ": 5877,
      "IUC": 5878,
      "dian": 5879,
      "चेन्नई": 5880,
      "IUCN": 5881,
      "▁24": 5882,
      "▁Official": 5883,
      "विद्या": 5884,
      "ivision": 5885,
      "▁12": 5886,
      "▁\"राजस्थान": 5887,
      "apan": 5888,
      "](https://hi.wikipedia.org/wiki/पाकिस्तान": 5889,
      "▁social": 5890,
      "ब्ल": 5891,
      "सर": 5892,
      "olution": 5893,
      "▁[बौद्ध": 5894,
      "▁K.": 5895,
      "_ह": 5896,
      "/S": 5897,
      "▁\"अंग्रेज़ी": 5898,
      "▁२६": 5899,
      "alli": 5900,
      "▁अन्त": 5901,
      "oot": 5902,
      "▁प्राणी**": 5903,
      "-00": 5904,
      "तेलुगू": 5905,
      "▁भारताची": 5906,
      "ement": 5907,
      "▁]": 5908,
      "eration": 5909,
      "ेड": 5910,
      "pic": 5911,
      "▁राज्यक्षेत्र": 5912,
      "चीन\")": 5913,
      "encies": 5914,
      "तेलंगाना": 5915,
      "For": 5916,
      "▁स्वतंत्रता": 5917,
      "जार": 5918,
      "EditP": 5919,
      "पीठ": 5920,
      "▁rep": 5921,
      "पुरम": 5922,
      "▁शे": 5923,
      "▁other": 5924,
      "रक्षा": 5925,
      "शत": 5926,
      "ौसेना": 5927,
      "हशत": 5928,
      "EditPage/Template:": 5929,
      "Special:EditPage/Template:": 5930,
      "_युद्ध": 5931,
      "ervation": 5932,
      "_की_": 5933,
      "िरी": 5934,
      "_ind": 5935,
      "▁इ.": 5936,
      "▁minister": 5937,
      "▁ईसा": 5938,
      "▁\"भ": 5939,
      "▁Talbot": 5940,
      "न](https://mr.wikipedia.org/wiki/": 5941,
      "▁Bank": 5942,
      "लेला": 5943,
      "Spear1990": 5944,
      "▁ext": 5945,
      "िंधु": 5946,
      "▁India.": 5947,
      "२००": 5948,
      "pect": 5949,
      "▁(2018": 5950,
      "८]](https://mr.wikipedia.org/wiki/भारत#cite_note-": 5951,
      "line": 5952,
      "▁\"सहाय्य:CS1": 5953,
      "rist": 5954,
      "▁टिळक": 5955,
      "▁major": 5956,
      "](https://hi.wikipedia.org/wiki/भारत_के": 5957,
      "▁यादी\")": 5958,
      "k:": 5959,
      "ैंक": 5960,
      "वरून": 5961,
      "▁Nadu": 5962,
      "ह्य": 5963,
      "4).": 5964,
      "राम": 5965,
      "igence": 5966,
      "▁[सा": 5967,
      "ulke": 5968,
      "▁बहुत": 5969,
      "▁त्यात": 5970,
      "▁[Stein": 5971,
      "iles": 5972,
      "▁२०१": 5973,
      "ainism": 5974,
      "बंधन": 5975,
      "_ऑ": 5976,
      "/f": 5977,
      "ety": 5978,
      "▁[ड": 5979,
      "▁१२": 5980,
      "telligence": 5981,
      "etra": 5982,
      "190": 5983,
      "urton": 5984,
      "▁वनस्पती": 5985,
      "fore": 5986,
      "यर": 5987,
      "%E0%A4%AF": 5988,
      "ility": 5989,
      "▁मानसून": 5990,
      "णु": 5991,
      "fghan": 5992,
      "अनुसार": 5993,
      "रक्षण": 5994,
      "cted": 5995,
      "▁त्रूटी": 5996,
      "](https://hi.wikipedia.org/wiki/दक्षिण": 5997,
      "▁राजधान": 5998,
      "मेरिकन": 5999,
      "▁'": 6000,
      "hinese": 6001,
      "ce_": 6002,
      "भूष": 6003,
      "_V": 6004,
      "ृष्टी": 6005,
      "▁world's": 6006,
      "अंग्रेज़ी": 6007,
      "गी": 6008,
      "▁territory": 6009,
      "▁मशीन": 6010,
      "▁**[आ": 6011,
      "▁oc": 6012,
      ".gov.in": 6013,
      "▁Cons": 6014,
      "▁धार्मिक": 6015,
      "▁Pakistan": 6016,
      "▁सोयी": 6017,
      "▁def": 6018,
      "ूनिवर्सिटी": 6019,
      "ाळ": 6020,
      "▁यूनिवर्सिटी": 6021,
      "▁[3": 6022,
      "▁[पाकिस्तान](https://hi.wikipedia.org/wiki/पाकिस्तान": 6023,
      "▁[उत्तर": 6024,
      "etail": 6025,
      ".nic": 6026,
      "ीनगर": 6027,
      "ात्म": 6028,
      "▁found": 6029,
      "समिया": 6030,
      "ांना": 6031,
      "uslim": 6032,
      "▁सस्तन": 6033,
      "lor": 6034,
      "▁लाल": 6035,
      "▁[978-0": 6036,
      "\\*": 6037,
      "NCI": 6038,
      "](https://en.wikipedia.org/wiki/History": 6039,
      "ळूह": 6040,
      "cil": 6041,
      "_श": 6042,
      "▁\"चीन\")": 6043,
      "▁[United": 6044,
      "▁किन": 6045,
      "▁ca": 6046,
      "▁नव": 6047,
      "▁१६": 6048,
      "▁\"Special:BookSources/978-0": 6049,
      "पार": 6050,
      "▁भाव": 6051,
      "▁Empire\")": 6052,
      "▁सित": 6053,
      "odi": 6054,
      "वादी": 6055,
      "▁जग": 6056,
      "egist": 6057,
      "](https://mr.wikipedia.org/": 6058,
      "▁some": 6059,
      "▁सभा": 6060,
      "▁१९५०": 6061,
      "▁union": 6062,
      "▁समाज": 6063,
      "arliamentary": 6064,
      "टना": 6065,
      "urban": 6066,
      "केन्द्र": 6067,
      "शास्त्रीय": 6068,
      "riculture": 6069,
      "शिवा": 6070,
      "▁Census": 6071,
      "IM": 6072,
      "▁नाग": 6073,
      "▁both": 6074,
      "_साम": 6075,
      "LO": 6076,
      "▁term": 6077,
      "▁SAARC": 6078,
      "](https://mr.wikipedia.org/wiki/मुंबई": 6079,
      "arge": 6080,
      "▁कॉंग्रेस": 6081,
      "knowindia/": 6082,
      "UCN": 6083,
      "▁जब": 6084,
      "▁आली": 6085,
      "▁play": 6086,
      "▁occ": 6087,
      "एन": 6088,
      "माय": 6089,
      "▁Commission": 6090,
      "काश्मीर": 6091,
      "ris": 6092,
      "his": 6093,
      "/index.php?tit": 6094,
      "▁Hindi": 6095,
      "्तु": 6096,
      "ताजमह": 6097,
      "_चर्चा": 6098,
      "▁December": 6099,
      "त्तरी": 6100,
      "▁[सिंधू": 6101,
      "_के_अनुसार": 6102,
      "\"](http://www.": 6103,
      "rain": 6104,
      "ेद": 6105,
      "ED": 6106,
      "](Special:BookSources/978-0": 6107,
      "pib-1": 6108,
      "ुजरात](https://mr.wikipedia.org/wiki/ग": 6109,
      "oral": 6110,
      "▁प्रां": 6111,
      "tes": 6112,
      "▁१०": 6113,
      "emple": 6114,
      "▁trans": 6115,
      "क्षरता": 6116,
      "ोरे": 6117,
      "-25": 6118,
      "▁हैं।\n\n": 6119,
      "_आणि_न": 6120,
      "▁se": 6121,
      "ँग्रे": 6122,
      "▁CE": 6123,
      "लंड": 6124,
      "egistrar": 6125,
      "▁2024.": 6126,
      "_11": 6127,
      "▁\"दिल्ली": 6128,
      "▁\"Ch": 6129,
      "▁[य": 6130,
      "▁Ac": 6131,
      "फ्र": 6132,
      "](https://en.wikipedia.org/wiki/South": 6133,
      "ोर्ट": 6134,
      "](https://mr.wikipedia.org/wiki/चीन": 6135,
      "▁largest": 6136,
      "रुणा": 6137,
      "▁([link](https://mr.wikipedia.org/wiki/वर्ग:CS1_maint:_extra": 6138,
      "tud": 6139,
      "▁जनवरी": 6140,
      "र्ड": 6141,
      "fghanistan": 6142,
      "भग": 6143,
      "▁म्हणतात.": 6144,
      "2–": 6145,
      "Po": 6146,
      "unct": 6147,
      "_O": 6148,
      "▁मिल": 6149,
      "फ्रे": 6150,
      "ele": 6151,
      "*,": 6152,
      "ात.": 6153,
      "rm": 6154,
      "TR": 6155,
      "▁जातात.": 6156,
      "reek": 6157,
      "प्रकार": 6158,
      "▁article:": 6159,
      "&action=edit": 6160,
      "ix": 6161,
      "▁मई": 6162,
      "▁\"कर्नाटक": 6163,
      "द्वार": 6164,
      "ंग्रजी:": 6165,
      "▁2006](https://en.wikipedia.org/wiki/India#CITEREFMetcalfMetcalf2006": 6166,
      "उप": 6167,
      "▁2006](https://en.wikipedia.org/wiki/India#CITEREFMetcalfMetcalf2006),": 6168,
      "ाभ": 6169,
      "ffairs": 6170,
      "▁घट": 6171,
      "▁2020": 6172,
      "▁\"य": 6173,
      "ओडिशा](https://mr.wikipedia.org/wiki/": 6174,
      "▁\"History": 6175,
      "▁Mo": 6176,
      "election": 6177,
      "▁मोदी": 6178,
      "ada": 6179,
      "ड़िया": 6180,
      "ळा": 6181,
      "ife": 6182,
      "ंग्रेजी": 6183,
      "le=%E0%A4%B": 6184,
      "▁time": 6185,
      "[[10": 6186,
      "ildli": 6187,
      "\"](https://books.google.com/books?id=": 6188,
      "्यानंतर": 6189,
      "ek": 6190,
      "atus": 6191,
      "िध": 6192,
      "yanmar": 6193,
      "-of": 6194,
      "▁[ब](https://mr.wikipedia.org/wiki/साचा": 6195,
      "lack": 6196,
      "▁\"साँच": 6197,
      "मुंबई](https://mr.wikipedia.org/wiki/मुंबई": 6198,
      "ournal": 6199,
      "म्भ": 6200,
      "▁[मुंबई](https://mr.wikipedia.org/wiki/मुंबई": 6201,
      "ryan": 6202,
      "▁क्रमांक)": 6203,
      "▁Delhi": 6204,
      "गान": 6205,
      "lear_": 6206,
      "▁original](https://": 6207,
      "ेंगल": 6208,
      "extra\\_": 6209,
      "Stein2010),": 6210,
      "▁./वर्ग:CS1\\_maint:\\_extra\\_": 6211,
      "▁they": 6212,
      ".pd": 6213,
      "▁Press](https://en.wikipedia.org/wiki/Oxford": 6214,
      "▁मन": 6215,
      "▁\"पश्चिम": 6216,
      "▁China": 6217,
      "_(भारत)": 6218,
      "▁began": 6219,
      "▁(2018),": 6220,
      "*](https://mr.wikipedia.org/wiki/व": 6221,
      "west": 6222,
      "20]](https://hi.wikipedia.org/wiki/भारत#cite_note-": 6223,
      "▁संस्कृत": 6224,
      "esert": 6225,
      "संधान": 6226,
      "_बंगाल": 6227,
      "▁जनजाति": 6228,
      "पश्चिम_बंगाल": 6229,
      "▁[Oxford": 6230,
      "_इ": 6231,
      "▁सर्वात": 6232,
      "▁Company": 6233,
      "▁टक्के,": 6234,
      "](Category:": 6235,
      "▁में,": 6236,
      "states": 6237,
      "▁लिये": 6238,
      "▁राजकीय": 6239,
      "epal": 6240,
      "▁कम": 6241,
      "▁नेहरु": 6242,
      "▁\"Category:": 6243,
      "_ऑफ": 6244,
      "_n": 6245,
      "ेंगलुरु": 6246,
      "](https://mr.wikipedia.org/wiki/केरळ": 6247,
      "▁[Asher": 6248,
      "७]](https://mr.wikipedia.org/wiki/भारत#cite_note-": 6249,
      "▁Kashmir": 6250,
      "_ट": 6251,
      "ultanate": 6252,
      "▁\"सिक्कीम": 6253,
      "jec": 6254,
      "](https://hi.wikipedia.org/wiki/भारत_के_राज्य": 6255,
      "▁भारताचा": 6256,
      "hang": 6257,
      "्राइ": 6258,
      "meric": 6259,
      "ूर्ण": 6260,
      "ाणे": 6261,
      "6]](https://en.wikipedia.org/wiki/India#cite_note-FOOTNOTE": 6262,
      "▁औ": 6263,
      "▁Bengal": 6264,
      "_Nuc": 6265,
      "4–": 6266,
      "opl": 6267,
      "_Nuclear_": 6268,
      "oci": 6269,
      "द्धती": 6270,
      "Sharma": 6271,
      "unctu": 6272,
      "ocial": 6273,
      "रि": 6274,
      "le=%E0%A4%B8": 6275,
      "▁Pers": 6276,
      "](https://mr.wikipedia.org/w": 6277,
      "ott": 6278,
      "](https://mr.wikipedia.org/w/index.php?tit": 6279,
      "▁Environment": 6280,
      "url": 6281,
      "](https://mr.wikipedia.org/wiki/दिल्ली": 6282,
      "ministrative": 6283,
      "▁धर्म](https://mr.wikipedia.org/wiki/": 6284,
      "agar": 6285,
      "▁गई": 6286,
      "▁पदार्थ": 6287,
      "avi": 6288,
      "धुनिक": 6289,
      ":दक्षिण": 6290,
      "▁Gandhi": 6291,
      "३०": 6292,
      "Spear199024": 6293,
      "ांस": 6294,
      "▁*[The": 6295,
      "3),": 6296,
      "▁आहे.\n\n###": 6297,
      "05": 6298,
      "▁1998": 6299,
      "▁शाले": 6300,
      "rel": 6301,
      "ोला": 6302,
      "ura": 6303,
      "र्ध": 6304,
      "▁महत्त्व": 6305,
      "ultural": 6306,
      "▁./श्रेणी:CS1": 6307,
      "लेणी": 6308,
      "▁[↑](https://en.wikipedia.org/wiki/India#cite_ref-FOOTNOTER": 6309,
      "▁[इराण": 6310,
      "ances": 6311,
      "](https://hi.wikipedia.org/wiki/भारत#cite_ref-langoff": 6312,
      "हेब": 6313,
      "▁Pro": 6314,
      "▁पाकिस्तान": 6315,
      "▁history": 6316,
      "](https://hi.wikipedia.org/wiki/साँच": 6317,
      "▁\"गुजरात": 6318,
      "▁Islands": 6319,
      "▁[प्र": 6320,
      "▁\"गुजरात\")": 6321,
      "emale": 6322,
      "ogra": 6323,
      "ibet": 6324,
      "द्यालय": 6325,
      "▁2010](https://en.wikipedia.org/wiki/India#CITEREFStein2010),": 6326,
      "▁बड़े": 6327,
      "110": 6328,
      "itt": 6329,
      "pib-7": 6330,
      "कडे": 6331,
      "▁number": 6332,
      "a.gov": 6333,
      "aniz": 6334,
      "ुग": 6335,
      "rganiz": 6336,
      "हाँ": 6337,
      "▁६": 6338,
      "▁Summit\")": 6339,
      "42": 6340,
      "ियन": 6341,
      "ict": 6342,
      "▁21": 6343,
      "वन\")": 6344,
      "limate": 6345,
      "▁[Singh": 6346,
      "▁शेती": 6347,
      "rough": 6348,
      "▁बंगाल](https://mr.wikipedia.org/wiki/": 6349,
      "upta": 6350,
      "िबंध": 6351,
      "▁बंगाल](https://mr.wikipedia.org/wiki/पश्चिम_बंगाल": 6352,
      "inistry_of_": 6353,
      "तम": 6354,
      "िक्कीम](https://mr.wikipedia.org/wiki/स": 6355,
      "road": 6356,
      "▁[सिक्कीम](https://mr.wikipedia.org/wiki/स": 6357,
      "ters": 6358,
      "्रह": 6359,
      "Cons": 6360,
      "ducation": 6361,
      "Report": 6362,
      "](https://mr.wikipedia.org/wiki/लोक": 6363,
      "6-0)": 6364,
      "Singh2009),": 6365,
      "ओडिशा](https://mr.wikipedia.org/wiki/ओडिशा": 6366,
      "union_territ": 6367,
      "](https://hi.wikipedia.org/wiki/पश्चिम": 6368,
      "▁पहि": 6369,
      "▁Press](https://en.wikipedia.org/wiki/Oxford_University_Press": 6370,
      "िबंधीय": 6371,
      "▁स्थापत्य": 6372,
      "ery": 6373,
      "_एशिया": 6374,
      "▁होत्या": 6375,
      "emocracy": 6376,
      "linkimage": 6377,
      "्यम": 6378,
      "](https://en.wikipedia.org/wiki/Ch": 6379,
      "▁त्रूटी\"))": 6380,
      "inger": 6381,
      "▁[गुजरात": 6382,
      "AARC_summit": 6383,
      "▁नागपूर": 6384,
      "▁२००": 6385,
      "ommonwealth": 6386,
      "](https://hi.wikipedia.org/wiki/भारत#CITEREFSingh2009),": 6387,
      "▁लागले.": 6388,
      "/P": 6389,
      "▁1.": 6390,
      "mission": 6391,
      "▁सकल": 6392,
      "bank": 6393,
      "▁निभा": 6394,
      "▁\"नवी": 6395,
      "Qu": 6396,
      "▁सभ्यता": 6397,
      "प्रमाण": 6398,
      "a-": 6399,
      "र्श": 6400,
      "CLO": 6401,
      "▁हिंदी": 6402,
      "rahmap": 6403,
      "t-": 6404,
      "▁ओळखले": 6405,
      "▁R.": 6406,
      "▁क्र": 6407,
      "iam": 6408,
      "b)": 6409,
      "](https://mr.wikipedia.org/w/index.php?title=%E0%A4%B8": 6410,
      "▁ins": 6411,
      "▁[सं](https://mr.wikipedia.org/w/index.php?title=%E0%A4%B8": 6412,
      "_g": 6413,
      "ONCI": 6414,
      "▁York": 6415,
      "▁देव": 6416,
      "sanil": 6417,
      "languages": 6418,
      "त्ति": 6419,
      "7-0)": 6420,
      "the_": 6421,
      "Biodiversity_P": 6422,
      "5]](https://en.wikipedia.org/wiki/India#cite_note-FOOTNOTE": 6423,
      "▁राजधानी": 6424,
      "thor": 6425,
      "▁,": 6426,
      "▁Raj": 6427,
      "▁तो": 6428,
      "pert": 6429,
      "%E0%A5%87": 6430,
      "7-1": 6431,
      "▁°": 6432,
      "So": 6433,
      "▁2022": 6434,
      "▁Wiki": 6435,
      "Biodiversity_Profile": 6436,
      "▁non-": 6437,
      "ारिक": 6438,
      "Aryan": 6439,
      "▁22": 6440,
      "▁पारंपारिक": 6441,
      "▁since": 6442,
      "▁\"बांगलादेश": 6443,
      "kim": 6444,
      "▁[चीन": 6445,
      "](https://en.wikipedia.org/wiki/India#CITEREFR": 6446,
      "28)": 6447,
      "▁साहित": 6448,
      "▁app": 6449,
      "▁देख": 6450,
      "](https://en.wikipedia.org/wiki/List_of_countries_by": 6451,
      "▁संस्थान": 6452,
      "▁हिंदू": 6453,
      "uddhist": 6454,
      "▁भूमिका": 6455,
      "रोबर": 6456,
      "▁lead": 6457,
      "inguistic": 6458,
      "▁ॲ": 6459,
      "▁par": 6460,
      "▁Linguistic": 6461,
      "a.gov/": 6462,
      "▁India\").": 6463,
      "▁स्तर": 6464,
      "▁राष्ट्रचिन्हे": 6465,
      ".png": 6466,
      "/linkimage": 6467,
      "▁वृक्ष": 6468,
      "s_of_India": 6469,
      "ed/linkimage": 6470,
      "तीनुसार": 6471,
      "anoram": 6472,
      "ared/linkimage": 6473,
      "िझर्व": 6474,
      "ared/linkimages/": 6475,
      "वामान?action=edit&redlink=1": 6476,
      "ament": 6477,
      "shared/linkimages/": 6478,
      "▁पूर्वी": 6479,
      "undament": 6480,
      "tri": 6481,
      "▁[सिक्कीम](https://mr.wikipedia.org/wiki/सिक्कीम": 6482,
      "▁land": 6483,
      "फ्रेंच": 6484,
      "aldives": 6485,
      "ी](https://hi.wikipedia.org/wiki/म": 6486,
      "▁स.": 6487,
      "▁Al": 6488,
      "▁दीव": 6489,
      "▁used": 6490,
      "्त्र": 6491,
      "वा*](https://mr.wikipedia.org/wiki/व": 6492,
      "oon": 6493,
      "_राज्य": 6494,
      "नन": 6495,
      "tice": 6496,
      "rim": 6497,
      "mar2011": 6498,
      "समू": 6499,
      "alore": 6500,
      "▁रक्षा": 6501,
      "समूह": 6502,
      "erala": 6503,
      "*](http://": 6504,
      "](https://mr.wikipedia.org/wiki/नवी_": 6505,
      "ments": 6506,
      "▁दृश्य": 6507,
      "▁दिल्ली](https://mr.wikipedia.org/wiki/नवी_": 6508,
      "otals": 6509,
      "](https://hi.wikipedia.org/wiki/भारत#CITEREFStein1998": 6510,
      "ाप्": 6511,
      "ots": 6512,
      "▁1998](https://hi.wikipedia.org/wiki/भारत#CITEREFStein1998": 6513,
      "▁सम्राट": 6514,
      "errit": 6515,
      "▁1998](https://hi.wikipedia.org/wiki/भारत#CITEREFStein1998),": 6516,
      "1909": 6517,
      "erritory": 6518,
      "▁2009](https://hi.wikipedia.org/wiki/भारत#CITEREFSingh2009),": 6519,
      "ोस्": 6520,
      "flu": 6521,
      "५]](https://mr.wikipedia.org/wiki/भारत#cite_note-": 6522,
      "▁(India)\")": 6523,
      "▁रंगम": 6524,
      "adi": 6525,
      "ांति": 6526,
      "](https://mr.wikipedia.org/wiki/भारताची": 6527,
      "lowing": 6528,
      "ंग्लंड": 6529,
      "_East_Asia_Summit": 6530,
      "केरळ](https://mr.wikipedia.org/wiki/केरळ": 6531,
      "iction": 6532,
      "थियार": 6533,
      ".gov.in/knowindia/": 6534,
      "1970": 6535,
      "](https://hi.wikipedia.org/wiki/भारत#cite_ref-langoff_12": 6536,
      "{{": 6537,
      "An": 6538,
      "▁सिनेमा\"),": 6539,
      "](https://mr.wikipedia.org/wiki/इ.स.": 6540,
      "▁groups": 6541,
      "albot2008": 6542,
      "](https://mr.wikipedia.org/wiki/इ.स._": 6543,
      "ocal": 6544,
      "ूची": 6545,
      "rahmaputra": 6546,
      "धीरे": 6547,
      "▁येतात.": 6548,
      "4/": 6549,
      "ेंस": 6550,
      "CLOP": 6551,
      "▁relations": 6552,
      "▁उपमहाद्वीप": 6553,
      "YCLOP": 6554,
      "ball": 6555,
      "feb": 6556,
      "CYCLOP": 6557,
      "eries": 6558,
      "20]](https://hi.wikipedia.org/wiki/भारत#cite_note-langoff": 6559,
      "NCYCLOP": 6560,
      "▁Times": 6561,
      "20]](https://hi.wikipedia.org/wiki/भारत#cite_note-langoff-1": 6562,
      "}}": 6563,
      "rdu": 6564,
      "वियत": 6565,
      "िवाळी": 6566,
      "artition": 6567,
      "न्ध": 6568,
      "▁जंग": 6569,
      "Ludden": 6570,
      "▁प्रधानमंत्री": 6571,
      "▁शास्त्र": 6572,
      "olpert": 6573,
      "site": 6574,
      "▁[तमिळनाडू](https://mr.wikipedia.org/wiki/तमिळनाडू": 6575,
      "▁sp": 6576,
      "20]](https://hi.wikipedia.org/wiki/भारत#cite_note-langoff-128)": 6577,
      "थे": 6578,
      "8-0)": 6579,
      "\\_क": 6580,
      "्राइव्ह": 6581,
      "ancy": 6582,
      "▁काम": 6583,
      "▁दिल्ली](https://mr.wikipedia.org/wiki/नवी_दिल्ली": 6584,
      "cid": 6585,
      "चें": 6586,
      "▁आशिया\")**": 6587,
      "ez": 6588,
      "चेंज": 6589,
      "rganization": 6590,
      "▁[सं](https://mr.wikipedia.org/w/index.php?title=%E0%A4%B8%E0%A4%BE%E0%A4%9": 6591,
      "▁prime": 6592,
      "ing_": 6593,
      "%E0%A4%B6": 6594,
      "cean": 6595,
      "तुल": 6596,
      "_a_Nuclear_": 6597,
      "formation": 6598,
      "index": 6599,
      "ंद्रनाथ": 6600,
      "wal": 6601,
      "▁जिन": 6602,
      "angalore": 6603,
      "▁CITEREFStein1998": 6604,
      "▁(पूर्वीचे": 6605,
      "99": 6606,
      "9,": 6607,
      "](https://mr.wikipedia.org/wiki/प": 6608,
      "lobal": 6609,
      "्लेट": 6610,
      "▁घोष": 6611,
      "aylor": 6612,
      "▁नेतृत्व": 6613,
      "मायण": 6614,
      "ारो": 6615,
      "aya": 6616,
      "3/": 6617,
      "हित्य": 6618,
      "NCYCLOPED": 6619,
      "chin": 6620,
      "ंपनी": 6621,
      "109": 6622,
      "anc": 6623,
      "Biodiversity_Profile_of_India": 6624,
      "▁30": 6625,
      "a)": 6626,
      "India_is": 6627,
      "▁famil": 6628,
      "ंग्रेज": 6629,
      "विध्य": 6630,
      "▁large": 6631,
      "a_1": 6632,
      "शिवाजी": 6633,
      "1).": 6634,
      "▁मंदिर\")": 6635,
      "▁आशियाई": 6636,
      "pib-7mar2011": 6637,
      "▁\"राजस्थान\")": 6638,
      "ved": 6639,
      "ारम्भ": 6640,
      "▁वाटा": 6641,
      "ight": 6642,
      "रविंद्रनाथ": 6643,
      "_and_D": 6644,
      "aury": 6645,
      "बा": 6646,
      "काश्म": 6647,
      "3–": 6648,
      "px?": 6649,
      "▁[च](https://mr.wikipedia.org/wiki/साचा": 6650,
      "amp": 6651,
      ".aspx?": 6652,
      "▁विषय": 6653,
      "2]](https://en.wikipedia.org/wiki/India#cite_note-FOOTNOTE": 6654,
      "onstituent": 6655,
      "▁वर्षों": 6656,
      "हाभारत": 6657,
      "nergy": 6658,
      "y-": 6659,
      "स्तान\")": 6660,
      "emic": 6661,
      "री](https://hi.wikipedia.org/wiki/": 6662,
      "ुरूकू": 6663,
      "▁थे": 6664,
      "ुरूकूल": 6665,
      "[[120]](https://hi.wikipedia.org/wiki/भारत#cite_note-langoff-128)": 6666,
      "ासाहेब": 6667,
      "chitecture": 6668,
      "▁*मुख्य": 6669,
      "ieval": 6670,
      "_at_": 6671,
      "▁केवळ": 6672,
      "▁Com": 6673,
      "ायोस्": 6674,
      "▁River": 6675,
      "▁वेष": 6676,
      "▁Islands\")": 6677,
      "ार्क": 6678,
      "▁power": 6679,
      "फा": 6680,
      "▁\"गंगा": 6681,
      "▁C.": 6682,
      "गुप्त": 6683,
      "िकिपीडिया:संदर्भ_": 6684,
      "▁व्यवस्था": 6685,
      "वा*](https://mr.wikipedia.org/wiki/विकिपीडिया:संदर्भ_": 6686,
      "▁[c": 6687,
      "ृष": 6688,
      "▁हवा*](https://mr.wikipedia.org/wiki/विकिपीडिया:संदर्भ_": 6689,
      "_J": 6690,
      "ोट": 6691,
      "ोंडवन": 6692,
      "abh": 6693,
      "पुत्र": 6694,
      "▁tex": 6695,
      "▁CITEREFSingh2009": 6696,
      "ँग्रेस": 6697,
      "▁1950": 6698,
      "▁नावाचा": 6699,
      "Coll": 6700,
      "जापान": 6701,
      "घात": 6702,
      "▁11": 6703,
      "▁Tim": 6704,
      "ळम": 6705,
      "asting": 6706,
      "ैदिक": 6707,
      "ल्याळम": 6708,
      "▁col": 6709,
      "A%E0%A4%BE": 6710,
      "o-ope": 6711,
      "ंपन": 6712,
      "A%E0%A4%BE:": 6713,
      "MF": 6714,
      "▁[सं](https://mr.wikipedia.org/w/index.php?title=%E0%A4%B8%E0%A4%BE%E0%A4%9A%E0%A4%BE:": 6715,
      "▁14": 6716,
      "रोहर": 6717,
      "ao": 6718,
      "▁स्वर": 6719,
      "/India": 6720,
      "▁Minorities": 6721,
      ")\n\nThe": 6722,
      "थाई": 6723,
      "ऋत्य": 6724,
      "cb": 6725,
      "ैऋत्य": 6726,
      "](https://hi.wikipedia.org/wiki/मध्य": 6727,
      "tation": 6728,
      "▁2011.": 6729,
      "ticle": 6730,
      "ohn": 6731,
      "▁अमेर": 6732,
      "ticl": 6733,
      "_ENCYCLOPED": 6734,
      "6.\n": 6735,
      "nclm.nic.in/shared/linkimages/": 6736,
      "E_ENCYCLOPED": 6737,
      "ship": 6738,
      "ृष्ण": 6739,
      "E_ENCYCLOPEDIA": 6740,
      "▁his": 6741,
      "bn": 6742,
      ".pdf": 6743,
      "illen": 6744,
      "▁अलग": 6745,
      "▁इस्लामी": 6746,
      "owland1970": 6747,
      "](https://hi.wikipedia.org/wiki/भारत#cite_ref-langoff_128": 6748,
      "▁[१९": 6749,
      "rig": 6750,
      "▁सह": 6751,
      "भूषा": 6752,
      "city": 6753,
      "▁सेवा": 6754,
      "▁संविधान\")": 6755,
      "▁official": 6756,
      "भाजन": 6757,
      "क्षणिक": 6758,
      "kar": 6759,
      "▁Wikidata": 6760,
      "्राम": 6761,
      "force": 6762,
      "ngl": 6763,
      "्यानमार\")": 6764,
      "aran": 6765,
      "▁\"म्यानमार\")": 6766,
      "▁2021.\n": 6767,
      "संबर": 6768,
      "](https://mr.wikipedia.org/wiki/गंगा": 6769,
      "6–": 6770,
      "र्ट": 6771,
      "▁भूमी": 6772,
      "rature": 6773,
      "िधा": 6774,
      "Indonesia": 6775,
      "_a_Nuclear_S": 6776,
      "गड": 6777,
      "gra": 6778,
      "6,": 6779,
      "ONCIS": 6780,
      "▁economy": 6781,
      "▁दिसंबर": 6782,
      "CONCIS": 6783,
      "-le": 6784,
      "Su": 6785,
      "CONCISE_ENCYCLOPEDIA": 6786,
      "udi": 6787,
      "maur": 6788,
      ".[[4": 6789,
      "llchin": 6790,
      "maury": 6791,
      "thnic": 6792,
      "](https://hi.wikipedia.org/wiki/पंजाब": 6793,
      "▁शालेय": 6794,
      "▁made": 6795,
      "▁परि": 6796,
      "▁[पाकिस्तान](https://mr.wikipedia.org/wiki/पाकिस्तान": 6797,
      "cis": 6798,
      "नागालैंड": 6799,
      "▁आढळतात.": 6800,
      "▁[d": 6801,
      "प्राचीन": 6802,
      "cha": 6803,
      "▁सर्वोच्च": 6804,
      "teenth": 6805,
      "▁आद": 6806,
      "▁आधारित": 6807,
      "edieval": 6808,
      "ैनिक": 6809,
      "▁\"सिक्कीम\")": 6810,
      "▁mar": 6811,
      "▁\"ड": 6812,
      "ंग्रज": 6813,
      "▁All": 6814,
      "doc": 6815,
      "▁इंग्रज": 6816,
      "-2)": 6817,
      "\"](https://web.archive.org/web/20160": 6818,
      "▁[च](https://mr.wikipedia.org/wiki/साचा_चर्चा": 6819,
      "iteracy": 6820,
      "घर": 6821,
      "yle": 6822,
      "▁सदस": 6823,
      "्याने": 6824,
      "▁पार्टी": 6825,
      "▁हवा*](https://mr.wikipedia.org/wiki/विकिपीडिया:संदर्भ_द्या": 6826,
      "▁movement": 6827,
      "ल्ल": 6828,
      "&action=edit)": 6829,
      "overty": 6830,
      "▁सुरक्षा": 6831,
      "▁influ": 6832,
      "uran": 6833,
      "राण\")": 6834,
      "work": 6835,
      "खनऊ": 6836,
      "▁\"इराण\")": 6837,
      "akhand": 6838,
      ":आशियातील": 6839,
      "▁GDP": 6840,
      "c=": 6841,
      "▁आशिया](https://mr.wikipedia.org/wiki/चित्र:": 6842,
      "ua": 6843,
      "मत": 6844,
      "▁असल्या": 6845,
      "▁summit": 6846,
      "▁मन्दिर": 6847,
      "▁भाषेत": 6848,
      "▁Publishing": 6849,
      "▁[जम्मू": 6850,
      "▁Bi": 6851,
      "](https://mr.wikipedia.org/wiki/बौद्ध_धर्म": 6852,
      "▁...": 6853,
      "▁\"जम्मू": 6854,
      "▁Economic": 6855,
      "्रार": 6856,
      "तो.": 6857,
      "▁[↑](https://en.wikipedia.org/wiki/India#cite_ref-4": 6858,
      "▁शुरू": 6859,
      "कृष्ट": 6860,
      "imach": 6861,
      "Language": 6862,
      "▁द्वीपकल्प": 6863,
      "▁painting": 6864,
      "▁चित्रपटस": 6865,
      "%7C": 6866,
      "▁तटीय": 6867,
      "▁Himalay": 6868,
      "थाईल": 6869,
      "html).": 6870,
      "ica": 6871,
      "लिंग": 6872,
      "▁them": 6873,
      "Flag": 6874,
      "der": 6875,
      "▁घरेलू": 6876,
      "iffer": 6877,
      "▁सागर": 6878,
      "▁हळूह": 6879,
      "318": 6880,
      "राध": 6881,
      "▁हळूहळू": 6882,
      "▁bas": 6883,
      "▁गणला": 6884,
      "▁Pl": 6885,
      "63": 6886,
      "हिनी": 6887,
      "▁Valley": 6888,
      "▁विज्ञान": 6889,
      "▁[↑](https://mr.wikipedia.org/wiki/भारत#cite_ref-1": 6890,
      "नागर": 6891,
      "▁शैली": 6892,
      "▁eastern": 6893,
      "▁जवळ": 6894,
      "asi": 6895,
      "▁येथे": 6896,
      "▁left": 6897,
      "भारत)\")": 6898,
      "▁पुत्र": 6899,
      "illenni": 6900,
      "हम": 6901,
      "▁विभाग": 6902,
      "1_": 6903,
      "ेक": 6904,
      "ildlif": 6905,
      "ikkim": 6906,
      "ildlife": 6907,
      "▁\"United": 6908,
      "ियान": 6909,
      "्रिश्च": 6910,
      "▁western": 6911,
      "्टॉक": 6912,
      "▁स्वरूप": 6913,
      "▁urban": 6914,
      "ार्कट": 6915,
      "नागपूर": 6916,
      "▁country": 6917,
      "ार्कटिका": 6918,
      "▁`|": 6919,
      "160": 6920,
      "](https://hi.wikipedia.org/wiki/पूर्व": 6921,
      "निष्ठ": 6922,
      "▁contrib": 6923,
      "खाली": 6924,
      "eli": 6925,
      "म्मू_आणि_": 6926,
      "tiv": 6927,
      "▁वर्षा": 6928,
      "](https://mr.wikipedia.org/wiki/जम्मू_आणि_": 6929,
      "icob": 6930,
      "मुना": 6931,
      "▁Ex": 6932,
      "6),": 6933,
      "▁पडले": 6934,
      "sub": 6935,
      "ख़": 6936,
      ".com/news/": 6937,
      "ृद्धि": 6938,
      "▁द्वीपसमूह": 6939,
      "िकी": 6940,
      "्वाल": 6941,
      "▁[Indo-": 6942,
      "c.": 6943,
      "erry": 6944,
      "जपुरी": 6945,
      "▁प्रमाणात": 6946,
      "rat": 6947,
      ".ph": 6948,
      "▁चर्चा": 6949,
      "▁India](https://en.wikipedia.org/wiki/G": 6950,
      "▁राजनीतिक": 6951,
      "▁\"ओडिशा": 6952,
      "84": 6953,
      "▁\"केरळ": 6954,
      "lurton": 6955,
      "वत": 6956,
      "4-3": 6957,
      "जिस्ट": 6958,
      "ो-": 6959,
      "▁2019": 6960,
      "hist": 6961,
      "▁प्रांतात": 6962,
      "rary": 6963,
      "ूरोप": 6964,
      "ान्": 6965,
      "an,": 6966,
      "तुल्य": 6967,
      "▁असलेली": 6968,
      "ustralia": 6969,
      "▁महाराज": 6970,
      "▁ed.).": 6971,
      "▁करना": 6972,
      "ण\")": 6973,
      "ravi": 6974,
      "_0": 6975,
      "▁ऋषभ": 6976,
      "af": 6977,
      "▁2007\n": 6978,
      "▁(इंग्रजी:": 6979,
      "ucherry": 6980,
      "णिपुर": 6981,
      "▁जेव": 6982,
      "BC": 6983,
      "▁लिया": 6984,
      "▁जेवणात": 6985,
      "ouncil": 6986,
      "_सा": 6987,
      "Ach": 6988,
      "▁Lank": 6989,
      "ोलॉ": 6990,
      "Achaya": 6991,
      "]](https://en.wikipedia.org/wiki/India#cite_note-4": 6992,
      "▁जानेवारी": 6993,
      "\");": 6994,
      "ा_व": 6995,
      "्यांनी": 6996,
      "ove": 6997,
      "हारजिस्ट": 6998,
      "_at_the": 6999,
      "ृषि": 7000,
      "▁pre": 7001,
      "130": 7002,
      "▁मोठे": 7003,
      "▁Kingdom": 7004,
      "थम": 7005,
      "▁हवेली": 7006,
      "formatics": 7007,
      "▁पड़": 7008,
      "*संदर्भ": 7009,
      "▁[*संदर्भ": 7010,
      "resent": 7011,
      "पणे": 7012,
      "▁Science": 7013,
      "ाक": 7014,
      "ासाठी": 7015,
      "▁अपने": 7016,
      "▁मिळतात.": 7017,
      "▁S.": 7018,
      "बू": 7019,
      "तेनुसार": 7020,
      "▁General": 7021,
      "▁दृष्ट्या": 7022,
      "फाएं": 7023,
      "sanilk": 7024,
      "](https://en.wikipedia.org/wiki/United": 7025,
      "▁शासित": 7026,
      "sanilkum": 7027,
      "eral_election": 7028,
      "कांक": 7029,
      "▁झाले.": 7030,
      "general_election": 7031,
      "ावरील": 7032,
      "_Indian_general_election": 7033,
      "▁जलवायु": 7034,
      "\n\n|": 7035,
      "▁2012": 7036,
      "श्मीरी": 7037,
      "मुंबई\")": 7038,
      "ssam": 7039,
      "ंपरा": 7040,
      "हज": 7041,
      "ual": 7042,
      "▁[कर्नाटक": 7043,
      "▁31": 7044,
      "▁[कर्नाटक](https://mr.wikipedia.org/wiki/क": 7045,
      "uducherry": 7046,
      "_के_अनुसार_देश": 7047,
      "▁[कर्नाटक](https://mr.wikipedia.org/wiki/कर्नाटक": 7048,
      "▁prov": 7049,
      "जपा": 7050,
      "शान": 7051,
      "ency": 7052,
      "तिब्बत": 7053,
      "ographic": 7054,
      "▁employ": 7055,
      "ईद": 7056,
      "sey": 7057,
      "▁Tamil": 7058,
      "html)": 7059,
      "osey": 7060,
      "▁[महाराष्ट्र](https://hi.wikipedia.org/wiki/म": 7061,
      "](https://mr.wikipedia.org/wiki/म्यानमार": 7062,
      "▁[↑](https://en.wikipedia.org/wiki/India#cite_ref-FOOTNOTEMetcalfMetcalf2006": 7063,
      "▁[महाराष्ट्र](https://hi.wikipedia.org/wiki/महाराष्ट्र": 7064,
      "्यानमार](https://mr.wikipedia.org/wiki/म्यानमार": 7065,
      "%7c": 7066,
      "map": 7067,
      "▁[म्यानमार](https://mr.wikipedia.org/wiki/म्यानमार": 7068,
      "-largest": 7069,
      "_map": 7070,
      "▁आर्द्र": 7071,
      "illennium": 7072,
      "ुत्तर": 7073,
      "ulti": 7074,
      "▁गठ": 7075,
      "व्युत्तर": 7076,
      "▁summits\")": 7077,
      "४.": 7078,
      "▁बाह्य": 7079,
      "-h": 7080,
      "्रांति": 7081,
      "ns": 7082,
      "▁[पंजाब](https://hi.wikipedia.org/wiki/पंजाब": 7083,
      "▁राजवट": 7084,
      "▁Nehru": 7085,
      "▁सूची": 7086,
      "ांपैकी": 7087,
      "हुँच": 7088,
      "\n\n:": 7089,
      "order": 7090,
      "▁27": 7091,
      "unctuation": 7092,
      "urch": 7093,
      "f/": 7094,
      "▁सैन": 7095,
      "▁Gu": 7096,
      "बार": 7097,
      "%E0%A4%BF": 7098,
      "istorical": 7099,
      "रस": 7100,
      "▁ठिकाणी": 7101,
      "overeign": 7102,
      "लेली": 7103,
      "aves": 7104,
      "धीश": 7105,
      "ामुखी": 7106,
      "याधीश": 7107,
      "्वालामुखी": 7108,
      "ular": 7109,
      "ैव": 7110,
      "ological": 7111,
      "▁बंदर": 7112,
      "▁far": 7113,
      "-of-": 7114,
      "हशतवाद": 7115,
      "IMF": 7116,
      "EO": 7117,
      "तो": 7118,
      "▁\"National": 7119,
      "▁Act,": 7120,
      "ंभ": 7121,
      "▁second": 7122,
      "_न्या": 7123,
      "▁पदव्युत्तर": 7124,
      "ret": 7125,
      "\")*,": 7126,
      "▁करणे": 7127,
      "AARC_summits": 7128,
      "ुम्ब": 7129,
      "▁मंदिरे": 7130,
      "as,": 7131,
      "_सूचना": 7132,
      "काळ": 7133,
      "](https://en.wikipedia.org/wiki/National_": 7134,
      "बळ": 7135,
      "awahar": 7136,
      "▁७": 7137,
      "▁28": 7138,
      "इन": 7139,
      "ण्याची": 7140,
      "thnolog": 7141,
      "ोज": 7142,
      "kingdom": 7143,
      "soon_": 7144,
      "-०": 7145,
      "ुसूच": 7146,
      "▁रंगमंच": 7147,
      "▁Persian": 7148,
      "▁घाटी": 7149,
      "pringer": 7150,
      "history": 7151,
      "▁women": 7152,
      "▁(भारत)\")": 7153,
      "▁डॉलर": 7154,
      "▁(199": 7155,
      "ातन": 7156,
      "ockey": 7157,
      "वेश": 7158,
      "](https://mr.wikipedia.org/wiki/बांगलादेश": 7159,
      "▁gre": 7160,
      "फ्रां": 7161,
      "▁Mon": 7162,
      "Map": 7163,
      "cess": 7164,
      "ऍथ": 7165,
      "_उत्": 7166,
      "etary": 7167,
      "ऍथन": 7168,
      "India_is_a_Nuclear_S": 7169,
      "\n\n-": 7170,
      "यपुर": 7171,
      "India_is_a_Nuclear_Sta": 7172,
      "rial": 7173,
      "हाब": 7174,
      "vention": 7175,
      "द्दा": 7176,
      "arty": 7177,
      "स्लाम": 7178,
      "logo": 7179,
      "](https://hi.wikipedia.org/wiki/साँचा_व": 7180,
      "▁वारे": 7181,
      "oss": 7182,
      "▁चार": 7183,
      "▁रच": 7184,
      "वेद": 7185,
      "ashmiri": 7186,
      "▁बने": 7187,
      "▁कड": 7188,
      "pectancy": 7189,
      "▁आन्द": 7190,
      "anag": 7191,
      "न्तर": 7192,
      "त्याचे": 7193,
      "85": 7194,
      "▁[राजस्थान](https://mr.wikipedia.org/wiki/राजस्थान": 7195,
      "alit": 7196,
      "▁\"इ.स.": 7197,
      "Provision": 7198,
      "ld-": 7199,
      "](https://en.wikipedia.org/wiki/List_of_S": 7200,
      "▁था,": 7201,
      "▁नद्या": 7202,
      "](https://en.wikipedia.org/wiki/List_of_SAARC_summits": 7203,
      "▁मोसमी": 7204,
      "ward": 7205,
      "▁हाला": 7206,
      "▁शहरे": 7207,
      "7_": 7208,
      "▁वाढ": 7209,
      "omason": 7210,
      "](https://hi.wikipedia.org/wiki/हिन्द": 7211,
      "्यांचे": 7212,
      "les\\_": 7213,
      "जयनगर": 7214,
      "▁\"लोक": 7215,
      "▁लगभग": 7216,
      "▁(इंग्लिश": 7217,
      "▁J.": 7218,
      "▁गंगा": 7219,
      "tex": 7220,
      "आईएस": 7221,
      "▁[घ": 7222,
      "ling": 7223,
      "▁नौसेना": 7224,
      "▁el": 7225,
      "▁ज़": 7226,
      "▁चळवळी": 7227,
      "▁technology": 7228,
      "भूटान": 7229,
      "tritsch": 7230,
      "_18": 7231,
      "▁वन्य": 7232,
      "DikshitSchwartzberg2023": 7233,
      "▁From": 7234,
      "विद्याल": 7235,
      "resident": 7236,
      "जल": 7237,
      "chang1967": 7238,
      "▁new": 7239,
      "▁\"साँचा": 7240,
      "▁\"भारताची": 7241,
      "_BRICS_summit": 7242,
      "ालर": 7243,
      "र्ग": 7244,
      "oal": 7245,
      "ोंक": 7246,
      "vem": 7247,
      "awaharl": 7248,
      "मीरा": 7249,
      ".html)": 7250,
      "rancis": 7251,
      "मीरात": 7252,
      "▁नावाने": 7253,
      "ison": 7254,
      "132": 7255,
      "▁[बांगलादेश": 7256,
      "▁Hinduism": 7257,
      "▁हथियार": 7258,
      "athura": 7259,
      "edi": 7260,
      "](https://mr.wikipedia.org/wiki/इराण": 7261,
      "▁D.": 7262,
      "▁दख्खन": 7263,
      "endra": 7264,
      "दान": 7265,
      "▁भारतीया": 7266,
      "▁India*](https://books.google.com/books?id=": 7267,
      "▁[2](https://hi.wikipedia.org/wiki/भारत#cite_ref-FOOTNOTE": 7268,
      "▁सीमा": 7269,
      "oreign": 7270,
      "न्नड़": 7271,
      "▁यांच्या": 7272,
      "▁करता": 7273,
      "▁\"विकिपीडिया:संदर्भ": 7274,
      "▁[Government": 7275,
      "ूबर": 7276,
      "▁आपले": 7277,
      "eserve": 7278,
      "pib.nic.in/": 7279,
      "▁आले": 7280,
      "▁serv": 7281,
      "](https://hi.wikipedia.org/wiki/साँचा:": 7282,
      "_Islands": 7283,
      "धिराज्य": 7284,
      "▁[↑](https://mr.wikipedia.org/wiki/भारत#cite_ref-2": 7285,
      "raz": 7286,
      "ानगर": 7287,
      "िलि": 7288,
      "ootball": 7289,
      "–1": 7290,
      "▁[गुजरात](https://mr.wikipedia.org/wiki/ग": 7291,
      "uled": 7292,
      "त्पत्ति": 7293,
      "▁[गुजरात](https://mr.wikipedia.org/wiki/गुजरात": 7294,
      "isc": 7295,
      "▁राज्यां": 7296,
      "e/": 7297,
      "▁वार्ता:": 7298,
      "दिवस": 7299,
      "oard": 7300,
      "_en": 7301,
      "▁भारताला": 7302,
      "industani": 7303,
      "▁१८": 7304,
      "_industry": 7305,
      "▁\"महाराष्ट्र\")": 7306,
      "worldbank": 7307,
      "हें": 7308,
      ".५": 7309,
      "cip": 7310,
      "_Air": 7311,
      "▁वैशिष्ट्य": 7312,
      "4.\n": 7313,
      "▁निभाई": 7314,
      "▁सुरुव": 7315,
      "▁P.": 7316,
      "](https://hi.wikipedia.org/wiki/द": 7317,
      "▁मराठी": 7318,
      "ams": 7319,
      "ऑक्सफोर्ड": 7320,
      "▁कोटी": 7321,
      "icobar": 7322,
      "यास": 7323,
      "▁Assembly": 7324,
      "▁बड़ा": 7325,
      "ागोर": 7326,
      "hil": 7327,
      "ऍथनोलॉ": 7328,
      "४]](https://mr.wikipedia.org/wiki/भारत#cite_note-": 7329,
      "▁\"Th": 7330,
      "ऍथनोलॉग": 7331,
      "▁\"मुंबई\")": 7332,
      "▁me": 7333,
      "▁November": 7334,
      "ेर-": 7335,
      ".६": 7336,
      "y,": 7337,
      "ावेश": 7338,
      "fficial": 7339,
      "an_": 7340,
      "▁समावेश": 7341,
      "7]](https://en.wikipedia.org/wiki/India#cite_note-FOOTNOTE": 7342,
      "थल": 7343,
      "▁मै": 7344,
      "▁2025": 7345,
      "▁वृद्धि": 7346,
      "state": 7347,
      "पातकाल": 7348,
      "▁Modern": 7349,
      "_मो": 7350,
      "pecial": 7351,
      "५७": 7352,
      "▁पुरातन": 7353,
      "lag": 7354,
      "urve": 7355,
      "gni": 7356,
      "▁\"कर्नाटक\")": 7357,
      "lood": 7358,
      "▁बार": 7359,
      "ेकडील": 7360,
      "emograph": 7361,
      "ुरा": 7362,
      "िप": 7363,
      "iley": 7364,
      "sa": 7365,
      "▁काळातील": 7366,
      "▁[Ch": 7367,
      "-06-1": 7368,
      "urrent": 7369,
      "o-operation": 7370,
      "WEO": 7371,
      "शिख": 7372,
      "arath": 7373,
      "िज़ोर": 7374,
      "▁द्या\")": 7375,
      "code": 7376,
      "▁\"हिमालय": 7377,
      "ead": 7378,
      "_राजवंश": 7379,
      "मुखपृष्ठ": 7380,
      "arnatic": 7381,
      "▁धर्माचा": 7382,
      "Provisional_P": 7383,
      "▁[1](https://hi.wikipedia.org/wiki/भारत#cite_ref-FOOTNOTE": 7384,
      "ौगोल": 7385,
      "eor": 7386,
      "ताल": 7387,
      "ाबासाहेब": 7388,
      "▁these": 7389,
      "▁[राज्य": 7390,
      "▁\"राष्ट्र": 7391,
      "_Totals": 7392,
      "ुम्बई": 7393,
      "ालचि": 7394,
      "MID": 7395,
      "लोकसभा": 7396,
      "▁[अरुणाचल": 7397,
      "2]](https://en.wikipedia.org/wiki/India#cite_note-": 7398,
      "](https://hi.wikipedia.org/wiki/साँचा_वार्ता:": 7399,
      "थाय": 7400,
      "▁popul": 7401,
      "s\\_wi": 7402,
      "्वारी": 7403,
      "uisine": 7404,
      "](https://mr.wikipedia.org/wiki/आशिया": 7405,
      "pture": 7406,
      "्यूरो": 7407,
      "▁sugge": 7408,
      "O.": 7409,
      "जयपुर": 7410,
      "▁[इंडोनेशिया": 7411,
      "▁1947": 7412,
      "▁प्लेट": 7413,
      "ai_India": 7414,
      "▁Africa": 7415,
      "अरब": 7416,
      "मदार": 7417,
      "th_BRICS_summit": 7418,
      "▁\"साँचा:": 7419,
      "-v": 7420,
      "_on": 7421,
      "ानपूर": 7422,
      "▁culture": 7423,
      "ंडमान": 7424,
      "ai-": 7425,
      "](https://en.wikipedia.org/wiki/Th": 7426,
      "▁[श": 7427,
      "al_G": 7428,
      "▁[↑](https://en.wikipedia.org/wiki/India#cite_ref-FOOTNOTEB": 7429,
      "ामीण": 7430,
      "roadc": 7431,
      "_भारतीय_": 7432,
      "odiversity": 7433,
      "परेशन": 7434,
      "2001": 7435,
      "▁दोनों": 7436,
      "unrecognized_": 7437,
      "▁Research": 7438,
      "हारजिस्ट्रार": 7439,
      "-ic": 7440,
      "▁[Dyson": 7441,
      "दाख": 7442,
      "▁जंगले": 7443,
      "▁Republic": 7444,
      "ुरंग": 7445,
      "en,": 7446,
      "गध": 7447,
      "▁आरक्षण": 7448,
      "ained": 7449,
      "भोजपुरी": 7450,
      "्रायम्": 7451,
      "olence": 7452,
      "शासित_प्रदेश": 7453,
      "vel": 7454,
      "िल्ली\")": 7455,
      "_ignored": 7456,
      "ema": 7457,
      "ritann": 7458,
      "ृत्त": 7459,
      "qual": 7460,
      "d=": 7461,
      "abhara": 7462,
      "ource": 7463,
      "glia": 7464,
      "ष्णा": 7465,
      "ipp": 7466,
      "reli": 7467,
      "झबे": 7468,
      "▁mathema": 7469,
      "ँकि": 7470,
      "way_of_India": 7471,
      "▁caus": 7472,
      "](https://hi.wikipedia.org/wiki/य": 7473,
      "णतंत्र": 7474,
      "_Totals_P": 7475,
      "▁संख्या": 7476,
      "▁hum": 7477,
      "_सिनेमा": 7478,
      "emographics": 7479,
      "▁प्रारम्भ": 7480,
      "पथ": 7481,
      "phere": 7482,
      "ेय": 7483,
      "▁बंगाल\")": 7484,
      "ants": 7485,
      "▁/": 7486,
      "▁\"सिंधू": 7487,
      "arlo": 7488,
      "](https://hi.wikipedia.org/wiki/संस्कृत": 7489,
      "तैवान": 7490,
      ".india": 7491,
      "mple_": 7492,
      "नपथ": 7493,
      ".[[3": 7494,
      "▁ऐ": 7495,
      "er_": 7496,
      "iger": 7497,
      "▁१९९": 7498,
      "▁वाट": 7499,
      "gypt": 7500,
      "tin": 7501,
      "ांदे": 7502,
      "▁Rev": 7503,
      "[[12": 7504,
      "▁उपसाग": 7505,
      "▁Punjab": 7506,
      ".aspx?re": 7507,
      "ighth": 7508,
      "orig": 7509,
      "▁युद्ध\")": 7510,
      "▁tree": 7511,
      "▁./श्रेणी:CS1\\_": 7512,
      "](https://mr.wikipedia.org/wiki/छ": 7513,
      "ibcode": 7514,
      "ूटीसी": 7515,
      "3-8": 7516,
      "श्रीनगर": 7517,
      "ूटीसी+": 7518,
      "hief": 7519,
      "mir": 7520,
      "▁\"अरुणाचल": 7521,
      "than": 7522,
      "WEO.": 7523,
      "तुर्थ": 7524,
      "▁language\"),": 7525,
      "▁सितं": 7526,
      "लचर": 7527,
      "▁languages\")": 7528,
      "▁2,": 7529,
      "-icon": 7530,
      "_Totals_Paper": 7531,
      "pib.nic.in/new": 7532,
      "_sugge": 7533,
      "_Totals_Paper_1": 7534,
      "▁प्रतिशत": 7535,
      "▁व्यवसाय": 7536,
      "_Totals_Paper_1_of_": 7537,
      "ी](https://hi.wikipedia.org/wiki/प": 7538,
      "](https://mr.wikipedia.org/wiki/श्रीलंका": 7539,
      "▁\"In": 7540,
      "▁प्रे": 7541,
      "▁Indus": 7542,
      "▁सहयोग": 7543,
      "SCI": 7544,
      "](https://en.wikipedia.org/wiki/History_of_": 7545,
      "-06-13": 7546,
      "▁Civil": 7547,
      "▁समूह": 7548,
      "वेत": 7549,
      "iber": 7550,
      "▁दी": 7551,
      "▁रचना": 7552,
      "▁wid": 7553,
      "htm)": 7554,
      "ूरल": 7555,
      "oint": 7556,
      "▁\"प्र": 7557,
      "▁असतात.": 7558,
      "onsoon": 7559,
      "थी": 7560,
      "तनत": 7561,
      "▁development": 7562,
      "s\\_with": 7563,
      "MetcalfMetcalf2012": 7564,
      "ticlesh": 7565,
      "dis": 7566,
      "yam": 7567,
      "ासीम": 7568,
      "WE": 7569,
      "▁(a)": 7570,
      "ीमबे": 7571,
      "umbers": 7572,
      "us/": 7573,
      "▁add": 7574,
      "▁कला": 7575,
      "▁उद": 7576,
      "esc": 7577,
      "](https://hi.wikipedia.org/wiki/तमिल": 7578,
      "ालया": 7579,
      "Provisional_Population": 7580,
      "स्ता": 7581,
      "](https://mr.wikipedia.org/wiki/त्रिपुरा": 7582,
      "eology": 7583,
      "bot:": 7584,
      "▁प्रदेश](https://mr.wikipedia.org/wiki/अ": 7585,
      "▁cour": 7586,
      "इल": 7587,
      "ीला": 7588,
      "MC": 7589,
      "ase.aspx?re": 7590,
      "lease.aspx?re": 7591,
      "walia": 7592,
      "▁when": 7593,
      "release.aspx?re": 7594,
      "राक": 7595,
      "ches": 7596,
      "release.aspx?rel": 7597,
      "▁हर": 7598,
      "▁billion": 7599,
      "▁वायु": 7600,
      "र्कमे": 7601,
      "–2": 7602,
      "▁जिसके": 7603,
      "_भारतीय_राज्ये": 7604,
      "National_": 7605,
      "50th": 7606,
      "struc": 7607,
      "▁किन्तु": 7608,
      "▁निर्देशांक": 7609,
      "iving": 7610,
      "_के_देश": 7611,
      "ार्ध": 7612,
      "_rel": 7613,
      "रीन": 7614,
      "aju": 7615,
      "5.pdf)": 7616,
      "▁सरपट": 7617,
      "ociation": 7618,
      "▁गठबंधन": 7619,
      "Get": 7620,
      "ucation": 7621,
      "▁विवाद": 7622,
      "पुणे": 7623,
      "education": 7624,
      "sse": 7625,
      "late_": 7626,
      "▁(b)": 7627,
      "जीव": 7628,
      "▁राजवंश\")": 7629,
      "3-icon": 7630,
      "ymb": 7631,
      "राजनी": 7632,
      "Ali": 7633,
      "▁control": 7634,
      "▁(क": 7635,
      "Til": 7636,
      "aining": 7637,
      "▁परमाणु": 7638,
      "Tilak": 7639,
      "icon": 7640,
      "ूरोपीय": 7641,
      "entr": 7642,
      "▁सूर": 7643,
      "ynasty": 7644,
      "▁पहुँच": 7645,
      "dish": 7646,
      "िवेश": 7647,
      "ikhism": 7648,
      "▁मील": 7649,
      "झिक": 7650,
      "_Ass": 7651,
      "र्त": 7652,
      "ars": 7653,
      "site/": 7654,
      "पोल": 7655,
      "aria": 7656,
      "pib.nic.in/newsite/": 7657,
      "_Totals_Paper_1_of_2011": 7658,
      "origin": 7659,
      "▁आकर्ष": 7660,
      "Provisional_Population_Totals_Paper_1_of_2011": 7661,
      "डि": 7662,
      "Provisional_Population_Totals_Paper_1_of_2011_India": 7663,
      "ी\")\n-": 7664,
      "ंतरज": 7665,
      "eri": 7666,
      "\n\n[![](https://upload.wikimedia.org/wikipedia/commons/thumb/7/": 7667,
      "nown": 7668,
      "des_": 7669,
      "roadcasting": 7670,
      "diatimes": 7671,
      "des_6.": 7672,
      "2002": 7673,
      "जवा": 7674,
      "2022": 7675,
      "ऑपरेशन": 7676,
      "▁नमु": 7677,
      "▁[f": 7678,
      "2013_": 7679,
      "cording": 7680,
      "तमान": 7681,
      "_2013_": 7682,
      "4]](https://en.wikipedia.org/wiki/India#cite_note-FOOTNOTE": 7683,
      "ahib": 7684,
      "issing": 7685,
      "arak": 7686,
      "▁राज्यातील": 7687,
      "▁Press](https://en.wikipedia.org/wiki/C": 7688,
      "412": 7689,
      "ai_India_N": 7690,
      "▁rem": 7691,
      "RL": 7692,
      "](https://mr.wikipedia.org/wiki/हिमालय": 7693,
      "oples": 7694,
      "▁[v": 7695,
      "▁रहे": 7696,
      "▁This": 7697,
      "▁जैव": 7698,
      "▁[National": 7699,
      "▁\"राष्ट्रीय": 7700,
      "▁[जैन": 7701,
      "ouse": 7702,
      "त्यय": 7703,
      "overnment_of_India": 7704,
      "न्दा": 7705,
      "press": 7706,
      "irth": 7707,
      "▁इसी": 7708,
      "Sikh": 7709,
      "ortal:": 7710,
      "_राज्यक्षेत्र": 7711,
      "▁साम्राज्य\"),": 7712,
      "ative": 7713,
      "▁डॉल": 7714,
      "▁शतकात": 7715,
      "_pe": 7716,
      "rh": 7717,
      "dr": 7718,
      "्यटन\")": 7719,
      "ंश": 7720,
      "o.": 7721,
      "report": 7722,
      "▁(लोकसंख्येनुसार": 7723,
      "्याचे": 7724,
      "pecially": 7725,
      ".0": 7726,
      "▁जयते": 7727,
      "▁पाहिले.CS1": 7728,
      "▁India](https://en.wikipedia.org/wiki/C": 7729,
      "▁[t](https://hi.wikipedia.org/wiki/साँचा_वार्ता:": 7730,
      "of%20": 7731,
      "ually": 7732,
      "arli": 7733,
      "ेची": 7734,
      "▁50": 7735,
      "ow/": 7736,
      "वरात": 7737,
      "igned": 7738,
      "ticleshow/": 7739,
      "शोले": 7740,
      "▁Con": 7741,
      "▁जनता": 7742,
      "सदर": 7743,
      "](https://en.wikipedia.org/wiki/South_Asian_": 7744,
      "▁\"पूर्व": 7745,
      "ute": 7746,
      "ी](https://hi.wikipedia.org/wiki/स": 7747,
      "ल)": 7748,
      "▁सिंह": 7749,
      "▁[सरस्वती": 7750,
      "_सु": 7751,
      "▁\"भारताचे": 7752,
      "anipur": 7753,
      "▁[भारत](https://hi.wikipedia.org/wiki/भारत": 7754,
      "_Ch": 7755,
      "iary": 7756,
      "▁उद्यान\")": 7757,
      "nai_India_N": 7758,
      "culpture": 7759,
      "–12": 7760,
      "ately": 7761,
      "माजिक": 7762,
      "▁पूर्वीच्या": 7763,
      "ed,": 7764,
      "कव्ह": 7765,
      "▁life": 7766,
      "OLA": 7767,
      "▁युद्धात": 7768,
      "ffice": 7769,
      "▁उत्तर-प": 7770,
      "ुचि": 7771,
      "mitt": 7772,
      "▁जबकि": 7773,
      "▁[को": 7774,
      "anda": 7775,
      "▁2004](https://hi.wikipedia.org/wiki/भारत#CITEREF": 7776,
      "ुर्": 7777,
      "▁Park": 7778,
      "SW": 7779,
      "▁2007](https://en.wikipedia.org/wiki/India#CITEREF": 7780,
      "▁कर्ज": 7781,
      "पदी": 7782,
      "▁Pe": 7783,
      "व्या": 7784,
      "view": 7785,
      "▁\"संस्कृत": 7786,
      "ख्रिश्च": 7787,
      "](https://en.wikipedia.org/wiki/Mugh": 7788,
      "संक्र": 7789,
      "embers": 7790,
      "सां": 7791,
      "lu": 7792,
      "▁growth": 7793,
      "▁[संयुक्त": 7794,
      "टका": 7795,
      "-50": 7796,
      "▁ऊँच": 7797,
      "धम्म": 7798,
      "ortheast": 7799,
      "धम्मच": 7800,
      "-S": 7801,
      "s_D": 7802,
      "्याच्या": 7803,
      "-38": 7804,
      "line_": 7805,
      "ability": 7806,
      "▁बनी": 7807,
      "AS": 7808,
      "्याघ": 7809,
      "76": 7810,
      ".fr": 7811,
      ".wikimedia.org/wiki/": 7812,
      "_languages": 7813,
      "▁परंपरा": 7814,
      "▁(`|": 7815,
      "igarh": 7816,
      "_उत्पाद": 7817,
      "–24": 7818,
      "etraglia": 7819,
      "ummer": 7820,
      "▁आय": 7821,
      "िसी": 7822,
      "▁human": 7823,
      "▁२०": 7824,
      "adra": 7825,
      "भिन्न": 7826,
      "ओडिसी": 7827,
      "▁z": 7828,
      "विद्यालय": 7829,
      "णिज": 7830,
      "urvey": 7831,
      "▁शैक्षणिक": 7832,
      "▁[Ministry": 7833,
      "arman": 7834,
      "▁att": 7835,
      "[[14": 7836,
      "armandi": 7837,
      "ax": 7838,
      "▁\"commons": 7839,
      "▁\"British": 7840,
      "▁इतिहास\")": 7841,
      "चे_प": 7842,
      "-D": 7843,
      "](https://hi.wikipedia.org/wiki/चित्र:": 7844,
      "लतान": 7845,
      "adras": 7846,
      "ोकणी": 7847,
      "atyam": 7848,
      "CH": 7849,
      "disch": 7850,
      "aspx": 7851,
      "लयालम": 7852,
      "discher": 7853,
      "-R": 7854,
      "arat": 7855,
      "डच": 7856,
      ".[[40": 7857,
      "▁[ए": 7858,
      "तार": 7859,
      "loth": 7860,
      "▁हुआ।": 7861,
      "स्लम": 7862,
      "▁produc": 7863,
      "▁एशिया\")": 7864,
      "फिन": 7865,
      "rity": 7866,
      "राष्ट्रीय_": 7867,
      "line_with_": 7868,
      "]](https://en.wikipedia.org/wiki/India#cite_note-Combined": 7869,
      "्तन": 7870,
      "yline_with_": 7871,
      "्तनत": 7872,
      "yline_with_B": 7873,
      "rishn": 7874,
      "ल्तनत": 7875,
      "▁\"मणिपूर": 7876,
      "▁her": 7877,
      "▁प्रभा": 7878,
      "किर्ग": 7879,
      "UN": 7880,
      "गंगा": 7881,
      "किर्गिझ": 7882,
      "-90": 7883,
      "▁\"विशेष:EditPage/साँचा:": 7884,
      "Artic": 7885,
      "known": 7886,
      "](Template:": 7887,
      "थिली": 7888,
      ".](https://upload.wikimedia.org/wikipedia/commons/thumb/": 7889,
      "▁आहारात": 7890,
      "▁2018](https://en.wikipedia.org/wiki/India#CITEREFDyson2018": 7891,
      "पास": 7892,
      "▁2018](https://en.wikipedia.org/wiki/India#CITEREFDyson2018),": 7893,
      "नेई": 7894,
      "▁within": 7895,
      "ुनेई": 7896,
      ".aspx": 7897,
      "्रायल": 7898,
      "▁Cooperation": 7899,
      "र्कमेनि": 7900,
      "▁Soci": 7901,
      "uppor": 7902,
      "▁off": 7903,
      "िराती": 7904,
      "ofk": 7905,
      "ंगापूर": 7906,
      "▁sector": 7907,
      "91": 7908,
      "hmed": 7909,
      "ंबा": 7910,
      "▁ass": 7911,
      "AAJ": 7912,
      "](https://mr.wikipedia.org/wiki/अमेरिक": 7913,
      "rishna": 7914,
      "ject": 7915,
      "abharata": 7916,
      "reme": 7917,
      "ahabharata": 7918,
      "](https://en.wikipedia.org/wiki/Mughal_": 7919,
      "ges": 7920,
      "censusindia.gov.in/": 7921,
      "eal_": 7922,
      "▁\"सिंध": 7923,
      "osphere": 7924,
      "▁काँग्रेस": 7925,
      "▁ear": 7926,
      "▁स्थापन": 7927,
      "▁Plateau": 7928,
      "_इंडिया": 7929,
      "eography": 7930,
      "▁|\n\nCategory:": 7931,
      "eck": 7932,
      "ath_": 7933,
      "/article": 7934,
      "लेले": 7935,
      "olon": 7936,
      "ोडिया": 7937,
      "ternal": 7938,
      "er_des_6.": 7939,
      "▁Buddhist": 7940,
      "▁अशियाई": 7941,
      "TRt": 7942,
      "ंदिगढ": 7943,
      "3TRt": 7944,
      "](https://mr.wikipedia.org/wiki/संत": 7945,
      "handigarh": 7946,
      "▁साज": 7947,
      "ediff": 7948,
      "](https://mr.wikipedia.org/wiki/मणिपूर": 7949,
      "orn": 7950,
      "](https://en.wikipedia.org/wiki/British": 7951,
      "_of_India.svg": 7952,
      "uct": 7953,
      "ंतरजाल": 7954,
      "WEO.IN": 7955,
      "_Mah": 7956,
      "▁emer": 7957,
      "_sk": 7958,
      "▁\"Template:": 7959,
      "li_sk": 7960,
      "ions": 7961,
      "li_skyline_with_B": 7962,
      "a_Empire": 7963,
      "li_skyline_with_BSW": 7964,
      "▁Centre": 7965,
      "Worli_skyline_with_BSW": 7966,
      "▁\"Mughal": 7967,
      "using": 7968,
      "ature": 7969,
      "_उत्प": 7970,
      "eccan": 7971,
      "बेर": 7972,
      "akes": 7973,
      "Tag": 7974,
      "irector": 7975,
      "olden_": 7976,
      "vil": 7977,
      "▁[e": 7978,
      "दूळ": 7979,
      "▁increased": 7980,
      "३]](https://mr.wikipedia.org/wiki/भारत#cite_note-": 7981,
      "यचर": 7982,
      ".\")\n\n": 7983,
      "विभाग": 7984,
      "ign_": 7985,
      "parameters": 7986,
      "Quote": 7987,
      "\\_parameters": 7988,
      "Quote:": 7989,
      "हजहान": 7990,
      "▁Quote:": 7991,
      "▁capit": 7992,
      "upported": 7993,
      ")\n\n-": 7994,
      "upported\\_parameters": 7995,
      "▁total": 7996,
      "▁India\"": 7997,
      "IMFWEO.IN": 7998,
      "ावरून": 7999,
      "▁Games": 8000,
      "ल्फिन": 8001,
      "jpg": 8002,
      "ted)": 8003,
      "7C": 8004,
      "मूरल": 8005,
      "▁name": 8006,
      "ources": 8007,
      "nknow": 8008,
      "ondon": 8009,
      "_राष्ट्र": 8010,
      "times.com/": 8011,
      "erne": 8012,
      "most": 8013,
      "_आणि_निकोबार": 8014,
      "IF": 8015,
      "](https://mr.wikipedia.org/wiki/लक्षद्वीप": 8016,
      "pura": 8017,
      "ॅंड": 8018,
      "_with": 8019,
      "ैथिली": 8020,
      "▁through": 8021,
      "Gate": 8022,
      "▁especially": 8023,
      "IndiaGate": 8024,
      "▁[![A": 8025,
      "reed": 8026,
      "Uttarakhand": 8027,
      "ption": 8028,
      "द्रौ": 8029,
      "4]](https://en.wikipedia.org/wiki/India#cite_note-": 8030,
      "द्रौपदी": 8031,
      "▁29": 8032,
      "rework": 8033,
      "▁prom": 8034,
      "▁ki": 8035,
      "ात्मा": 8036,
      "ocument": 8037,
      "▁\"नेपाळ": 8038,
      "](https://mr.wikipedia.org/wiki/हिंदी": 8039,
      "-415": 8040,
      "n_M": 8041,
      "Indian_M": 8042,
      "itation": 8043,
      "▁text\"))\n": 8044,
      "baki": 8045,
      "ंबडी": 8046,
      "ंच्या": 8047,
      "cheduled": 8048,
      "थकल्": 8049,
      "3-1": 8050,
      "थकल्ली": 8051,
      "_&": 8052,
      "त्म": 8053,
      "▁[World": 8054,
      "_Chen": 8055,
      "▁(ed.).": 8056,
      "wali_Chen": 8057,
      "ictionary": 8058,
      "lometer": 8059,
      "vatsyayan-lord-4": 8060,
      "त्कालीन": 8061,
      "▁Sub": 8062,
      "▁सार": 8063,
      "9]](https://en.wikipedia.org/wiki/India#cite_note-": 8064,
      "](https://mr.wikipedia.org/wiki/सरस्वती": 8065,
      "class": 8066,
      "▁only": 8067,
      "लन": 8068,
      "_432": 8069,
      "झां": 8070,
      "_2024": 8071,
      "क्झां": 8072,
      "](https://en.wikipedia.org/wiki/World": 8073,
      "c.erne": 8074,
      "olden": 8075,
      "▁यश": 8076,
      "-India": 8077,
      "िया](https://mr.wikipedia.org/wiki/स": 8078,
      "](https://mr.wikipedia.org/wiki/को": 8079,
      "▁range": 8080,
      "्थ": 8081,
      "orship": 8082,
      "्थक": 8083,
      "ific": 8084,
      "ेश्": 8085,
      "undamental": 8086,
      "ominion": 8087,
      "्ञानेश्वर": 8088,
      "▁right": 8089,
      "-v3-icon": 8090,
      "▁[Cambridge": 8091,
      "उत्तराखंड\")": 8092,
      "_Centre": 8093,
      "ध्यात्म": 8094,
      "ront": 8095,
      "▁[राज": 8096,
      "5](https://en.wikipedia.org/wiki/India#CITEREF": 8097,
      "ातपु": 8098,
      "▁influen": 8099,
      "डिस्": 8100,
      "%E0%A4%A4": 8101,
      "ghts": 8102,
      "▁केला": 8103,
      "ango": 8104,
      "c.ernet": 8105,
      "ristian": 8106,
      "c.ernet.in/": 8107,
      "9]](https://en.wikipedia.org/wiki/India#cite_note-FOOTNOTE": 8108,
      "▁./वर्ग:CS1\\_maint:\\_extra\\_text": 8109,
      "oln": 8110,
      "▁[बंगालच्या": 8111,
      "aking": 8112,
      "त्रिपुरा\")": 8113,
      "lege": 8114,
      "](https://mr.wikipedia.org/wiki/बंगालचा": 8115,
      "ceu": 8116,
      "तुगी": 8117,
      "677": 8118,
      "गेटवे": 8119,
      "umar": 8120,
      "मुघल": 8121,
      "▁David": 8122,
      "क्षेत्रफळानुसार)\")": 8123,
      "hark": 8124,
      "s_Di": 8125,
      "harkhand": 8126,
      "ॅमी": 8127,
      "▁dispu": 8128,
      "_भ": 8129,
      "▁M.": 8130,
      "_Mahal_in_March": 8131,
      "▁composed": 8132,
      "ोदाव": 8133,
      "arendra": 8134,
      "ईन्स": 8135,
      "ull": 8136,
      "The_": 8137,
      "▁near": 8138,
      "The_Get": 8139,
      "The_Getway_of_India": 8140,
      "▁By": 8141,
      "eal_with_": 8142,
      "▁पाच": 8143,
      "▁ago": 8144,
      "तिख": 8145,
      "astr": 8146,
      "540": 8147,
      "stani": 8148,
      "श्चिमे": 8149,
      "rotection": 8150,
      "▁पश्चिमे": 8151,
      "▁2018": 8152,
      "▁त्याला": 8153,
      "ederal": 8154,
      "्हैस": 8155,
      "itz": 8156,
      "ायट": 8157,
      "_38": 8158,
      "Bal_G": 8159,
      ".svg/": 8160,
      "ौदी": 8161,
      "aro": 8162,
      "९]](https://mr.wikipedia.org/wiki/भारत#cite_note-": 8163,
      "artment": 8164,
      "%20of%20": 8165,
      "ingham": 8166,
      "](https://mr.wikipedia.org/wiki/नेपाळ": 8167,
      "_Comm": 8168,
      "▁करत": 8169,
      "▁2001": 8170,
      "rust": 8171,
      "ॅड": 8172,
      "arden": 8173,
      "ॅडॅमी": 8174,
      "_Nadu": 8175,
      "eal_with_R": 8176,
      "amil_Nadu": 8177,
      "Indian_Meal_with_R": 8178,
      "owev": 8179,
      "हिय": 8180,
      "owever,": 8181,
      "armandir": 8182,
      "hai": 8183,
      "▁किं": 8184,
      "▁Territory": 8185,
      "बॅक": 8186,
      "subcontinent": 8187,
      "शनल": 8188,
      "▁\"World": 8189,
      "द्दाख": 8190,
      "nc": 8191,
      "ैद्र": 8192,
      "▁along": 8193,
      "unrecognized_language": 8194,
      "-and": 8195,
      "ar_Tilak": 8196,
      "6]](https://en.wikipedia.org/wiki/India#cite_note-vatsyayan-lord-4": 8197,
      "त्याने": 8198,
      "▁\"Government": 8199,
      "4](https://mr.wikipedia.org/wiki/भारत#CITEREF": 8200,
      "International_": 8201,
      "चे_पठार": 8202,
      "▁political": 8203,
      "▁किंवा": 8204,
      "▁[\"C": 8205,
      ":३०": 8206,
      "▁old": 8207,
      "▁\"संत": 8208,
      "men": 8209,
      "थ्थक": 8210,
      "▁use": 8211,
      "rang": 8212,
      "▁प्रग": 8213,
      "ilk": 8214,
      "ुझिक": 8215,
      "hib": 8216,
      "्युझिक": 8217,
      "-30": 8218,
      "ित्र": 8219,
      ".svg.png": 8220,
      "Amr": 8221,
      "ecurity": 8222,
      "_in_Amr": 8223,
      "▁work": 8224,
      "_in_Amrits": 8225,
      "ichell": 8226,
      "▁प्रदेश](https://mr.wikipedia.org/wiki/अरुणाचल": 8227,
      "akistani": 8228,
      "▁प्रदेश](https://mr.wikipedia.org/wiki/अरुणाचल_प्रदेश": 8229,
      "oastal": 8230,
      "e_-": 8231,
      "ama": 8232,
      "ice_-": 8233,
      "00–": 8234,
      "](https://mr.wikipedia.org/wiki/इंग्रजी": 8235,
      "ंग्रजी](https://mr.wikipedia.org/wiki/इंग्रजी": 8236,
      "▁sim": 8237,
      "hola": 8238,
      "खिल": 8239,
      "▁Comp": 8240,
      "डर": 8241,
      "230": 8242,
      "▁लेखक": 8243,
      "hut": 8244,
      "नता": 8245,
      "Pakistani": 8246,
      "बळपुरी": 8247,
      "7]](https://en.wikipedia.org/wiki/India#cite_note-": 8248,
      "Bal_Gang": 8249,
      "Bal_Gangadh": 8250,
      "ritsch": 8251,
      "\\_देश": 8252,
      "harmaceu": 8253,
      "](https://en.wikip": 8254,
      "▁gen": 8255,
      "8]](https://en.wikipedia.org/wiki/India#cite_note-": 8256,
      "#%20": 8257,
      "ourbaki": 8258,
      "Rab": 8259,
      "▁regions": 8260,
      "Rabind": 8261,
      "atna": 8262,
      "Rabindr": 8263,
      "_of_C": 8264,
      "णालय": 8265,
      "▁Affairs": 8266,
      "ग्णालय": 8267,
      "vatsyayan-lord_432": 8268,
      "रुग्णालय": 8269,
      "▁eng": 8270,
      "▁पृष्ठीय": 8271,
      "500": 8272,
      "gri": 8273,
      "▁[India](https://en.wikipedia.org/wiki/India": 8274,
      "ogo": 8275,
      "Ex": 8276,
      "ogo-v3-icon": 8277,
      "▁Press](https://en.wikipedia.org/wiki/Cambridge": 8278,
      "Logo-v3-icon": 8279,
      "▁Press](https://en.wikipedia.org/wiki/Cambridge_University_Press": 8280,
      "▁आहे.[[२": 8281,
      "५:३०": 8282,
      "▁Commissioner": 8283,
      "धारणपणे": 8284,
      "▁[British": 8285,
      "](https://mr.wikipedia.org/wiki/सिंधू": 8286,
      "angam": 8287,
      "▁महाविद्याल": 8288,
      "hutan": 8289,
      "वेळ": 8290,
      "▁vill": 8291,
      "ble": 8292,
      "quality": 8293,
      "-k": 8294,
      "ahabharata_B": 8295,
      "338": 8296,
      "ahabharata_Bharat": 8297,
      "▁including": 8298,
      "Mahabharata_Bharat": 8299,
      "1-2": 8300,
      "ैन\")": 8301,
      "▁[↑](https://en.wikipedia.org/wiki/India#cite_ref-FOOTNOTEStein2010": 8302,
      "ोदावरी": 8303,
      "▁Central": 8304,
      "commons.wikimedia.org/wiki/": 8305,
      "6]](https://en.wikipedia.org/wiki/India#cite_note-vatsyayan-lord-432": 8306,
      "▁आक्रमणे": 8307,
      ".gov/": 8308,
      "ऊन": 8309,
      "▁bu": 8310,
      "acad": 8311,
      "day": 8312,
      "facad": 8313,
      "epartment": 8314,
      "facade": 8315,
      "▁\"Cambridge": 8316,
      "लग्": 8317,
      "ncient": 8318,
      "▁संलग्": 8319,
      "iet": 8320,
      "ोमन": 8321,
      "ecret": 8322,
      "रोमन": 8323,
      "▁1994](https://en.wikipedia.org/wiki/India#CITEREF": 8324,
      "*](https://web.archive.org/web/": 8325,
      "▁लु": 8326,
      "▁23": 8327,
      "ifferent": 8328,
      "झबेकिस्तान": 8329,
      "_pro": 8330,
      "प्रमुख": 8331,
      "e_in_": 8332,
      "ihar": 8333,
      "ताजिकि": 8334,
      "▁area": 8335,
      "▁employed": 8336,
      "्यो": 8337,
      "janta": 8338,
      "र्मू": 8339,
      "Sharma2007": 8340,
      "_DSCI": 8341,
      "ollowing": 8342,
      "ice_-_DSCI": 8343,
      "_-": 8344,
      "nai_India_No": 8345,
      "▁Routledge": 8346,
      "▁आशिया](https://mr.wikipedia.org/wiki/चित्र:Map": 8347,
      "eographical": 8348,
      "razil": 8349,
      "▁असली": 8350,
      "▁Organization": 8351,
      "नॉ": 8352,
      "data.": 8353,
      "वृत्त": 8354,
      "ukesh": 8355,
      "ंद्रगुप्त": 8356,
      "▁reg": 8357,
      "er-": 8358,
      "troduction": 8359,
      "t_facade": 8360,
      "economic": 8361,
      "Var": 8362,
      "रामायण": 8363,
      "](Special:BookSources/978-0-521": 8364,
      "▁५०": 8365,
      "61": 8366,
      "ांगडा": 8367,
      ".\n\n": 8368,
      "rune": 8369,
      "रावती": 8370,
      "otal": 8371,
      "तुर्थी": 8372,
      "_industry_in_India": 8373,
      "लेशिया": 8374,
      "▁[↑](https://en.wikipedia.org/wiki/India#cite_ref-FOOTNOTEM": 8375,
      "ule": 8376,
      "दामी": 8377,
      "ofker": 8378,
      "▁[त्रिपुरा": 8379,
      "रुग्णालयातील": 8380,
      "gram": 8381,
      "▁\"बांगलादेश\")": 8382,
      "emocra": 8383,
      "लेक्झां": 8384,
      "▁Dev": 8385,
      "लेक्झांडर": 8386,
      "industan": 8387,
      "ुवात": 8388,
      "hra": 8389,
      "ोहिनी": 8390,
      "ndhra": 8391,
      "टये": 8392,
      "▁2012.": 8393,
      "ई_देश": 8394,
      "3TRtDwAAQBAJ&pg=PA": 8395,
      "_आशियाई_देश": 8396,
      "ino-": 8397,
      "तेलंगणा": 8398,
      "ailand": 8399,
      "मूरलंग": 8400,
      "cript": 8401,
      "_आणि_प्रदेश": 8402,
      "usiness/": 8403,
      "_राज्ये_आणि_प्रदेश": 8404,
      "rates": 8405,
      "▁निकोबार\")": 8406,
      "▁2.": 8407,
      "▁आलेल्या": 8408,
      "▁estim": 8409,
      "वृत्तीय": 8410,
      "merican": 8411,
      "ूक": 8412,
      "▁direct": 8413,
      "रविंद": 8414,
      "adhya": 8415,
      "▁[नेपाळ": 8416,
      "gramme": 8417,
      "▁\"en": 8418,
      "▁US": 8419,
      "▁\"en:": 8420,
      "fir": 8421,
      "_pil": 8422,
      "▁school": 8423,
      "Sikh_pil": 8424,
      "▁species": 8425,
      "Sikh_pilgri": 8426,
      "▁agriculture": 8427,
      "ळुरू": 8428,
      "erves": 8429,
      "▁\"नेपाळ\")": 8430,
      "_River": 8431,
      "▁दिल्ली\")": 8432,
      "ritannica.com/": 8433,
      "▁कंपनी": 8434,
      "Kashmir": 8435,
      "पोलो": 8436,
      "▁kingdom": 8437,
      "थायलंड": 8438,
      "128": 8439,
      "▁occup": 8440,
      "▁टागोर": 8441,
      "omes": 8442,
      "Geographic": 8443,
      "▁These": 8444,
      "▁राष्ट्रचिन्हे\")": 8445,
      "▁Nicobar": 8446,
      "](https://mr.wikipedia.org/wiki/वार्षिक": 8447,
      "▁[978-81": 8448,
      "टिपू": 8449,
      "chedule": 8450,
      "](https://mr.wikipedia.org/wiki/कच्छ": 8451,
      "athematics": 8452,
      "्युझिक,": 8453,
      "emocratic": 8454,
      "क्षल": 8455,
      "mill": 8456,
      "यन": 8457,
      "millan": 8458,
      "▁संपूर्ण": 8459,
      "aph": 8460,
      "](https://mr.wikipedia.org/wiki/गंगा_नदी": 8461,
      "▁Pradesh\")": 8462,
      "वरात्री": 8463,
      "](https://books.google.com/books?id=3TRtDwAAQBAJ&pg=PA": 8464,
      "▁आली.": 8465,
      "ureau": 8466,
      "▁गर": 8467,
      "Tarlo": 8468,
      "▁आहे.\n\n##": 8469,
      "Collingham": 8470,
      "६५": 8471,
      "8/8": 8472,
      "sted)": 8473,
      "oa": 8474,
      "▁suggested)": 8475,
      "▁B.": 8476,
      "▁उपसागर\")": 8477,
      "▁[Y": 8478,
      "voyage-": 8479,
      "voyage-Logo-v3-icon": 8480,
      "use": 8481,
      "oti": 8482,
      "4-0": 8483,
      "Indian_Meal_with_Roti": 8484,
      "aos": 8485,
      "acmillan": 8486,
      "ालचिनी": 8487,
      "hind": 8488,
      "yth": 8489,
      "▁राज्यसभ": 8490,
      "▁Temple": 8491,
      "▁ध्वज": 8492,
      "-4020": 8493,
      "▁[कला": 8494,
      "lative": 8495,
      "हात्मा": 8496,
      "uddha": 8497,
      "▁ऑगस्ट": 8498,
      "_Commission": 8499,
      "II": 8500,
      "er_des_6._J": 8501,
      "odia": 8502,
      "ambodia": 8503,
      "ंदमान_आणि_निकोबार": 8504,
      "ults": 8505,
      "-53": 8506,
      "१६६-१": 8507,
      "arnataka": 8508,
      "▁\"commons:": 8509,
      "▁Public": 8510,
      "टिबंध": 8511,
      "वामित्र": 8512,
      "▁change": 8513,
      "Mahabharata_BharatVar": 8514,
      "iterature": 8515,
      "Mahabharata_BharatVarsh": 8516,
      "Bharat": 8517,
      "▁पुढ": 8518,
      "▁\"Special:BookSources/978-81": 8519,
      "स्लमडॉ": 8520,
      "▁\"केरळ\")": 8521,
      "ning": 8522,
      "harmaceutical": 8523,
      "_भारतीय_राज्ये_आणि_": 8524,
      "ingap": 8525,
      "▁११": 8526,
      "indus": 8527,
      "ॅकॅडॅमी": 8528,
      "ountain": 8529,
      "s_00": 8530,
      "▁[![The": 8531,
      "s_001": 8532,
      "▁Fund": 8533,
      "▁तिसऱ्या": 8534,
      "▁lik": 8535,
      "Worli_skyline_with_BSWL": 8536,
      "yer": 8537,
      "-03": 8538,
      "ating": 8539,
      "▁घेण्यास": 8540,
      "▁emerg": 8541,
      "स्वराज्य": 8542,
      "upt": 8543,
      "▁साहित्यात": 8544,
      "inema": 8545,
      "lar": 8546,
      "▁मोठी": 8547,
      "worldbank.org/": 8548,
      "ोरोन": 8549,
      "](Special:BookSources/978-81": 8550,
      "brar": 8551,
      "arc": 8552,
      "brary": 8553,
      "ived": 8554,
      "library": 8555,
      "बंधित": 8556,
      "eshow/": 8557,
      "_संविधान": 8558,
      "IFT": 8559,
      "ाचे_संविधान": 8560,
      "ly,": 8561,
      "](https://mr.wikipedia.org/wiki/भारताचे_संविधान": 8562,
      "Articles\\_": 8563,
      "जेचे": 8564,
      "ustrial": 8565,
      "▁गरजेचे": 8566,
      "Tarlo199": 8567,
      "▁./वर्ग:P": 8568,
      "DwAAQBAJ": 8569,
      "▁./वर्ग:Page": 8570,
      "Wolpert": 8571,
      "स्रायल": 8572,
      "▁majority": 8573,
      "▁झालेले": 8574,
      "mrits": 8575,
      "ुवेत": 8576,
      "%2C5": 8577,
      "▁स्वातंत्र्यदिवस": 8578,
      "indhi": 8579,
      "parameter_ignored": 8580,
      "ata_": 8581,
      "▁ओघात": 8582,
      "ांतर्": 8583,
      "omo": 8584,
      "▁मसाल": 8585,
      "▁areas": 8586,
      "ॅशनल": 8587,
      "▁As": 8588,
      "▁ज्याचा": 8589,
      "censusindia.gov.in/2011": 8590,
      "ियाचीन": 8591,
      "AG": 8592,
      "▁ड्राइव्ह": 8593,
      "▁Greek": 8594,
      "▁आमदार": 8595,
      "▁main": 8596,
      "](https://commons.wikimedia.org/wiki/": 8597,
      "1-1": 8598,
      "sci/": 8599,
      "▁Ved": 8600,
      "aler_des_6._J": 8601,
      "lurton199": 8602,
      "aler_des_6._Jah": 8603,
      "▁Society": 8604,
      "aler_des_6._Jahrh": 8605,
      "▁./Category:Articles\\_": 8606,
      "aler_des_6._Jahrhun": 8607,
      "▁Force": 8608,
      "ाई": 8609,
      "tis": 8610,
      "िलिपा": 8611,
      "runei": 8612,
      "िलिपाईन्स": 8613,
      "▁[978-0-521": 8614,
      "फिलिपाईन्स": 8615,
      "Insur": 8616,
      "▁गेले.": 8617,
      "britannica.com/": 8618,
      "डवि": 8619,
      "▁cre": 8620,
      "abha": 8621,
      "](https://mr.wikipedia.org/wiki/बंगालचा_": 8622,
      ";[[": 8623,
      "ो-ऑस्ट्रेल": 8624,
      "▁rec": 8625,
      "ंडो-ऑस्ट्रेल": 8626,
      "igration": 8627,
      "\n\nभारताच्या": 8628,
      "\"),[[": 8629,
      "अट्ट": 8630,
      "etry": 8631,
      "ogue": 8632,
      "Pakistan": 8633,
      "▁\"लक्षद्वीप": 8634,
      "ogam": 8635,
      "ator": 8636,
      "eitz": 8637,
      "ation,": 8638,
      "१३": 8639,
      "back": 8640,
      "ायली": 8641,
      "▁*India": 8642,
      "well": 8643,
      "▁[बिहार": 8644,
      "imal": 8645,
      "ुळ": 8646,
      "ependencies": 8647,
      "्रम्ह": 8648,
      "ues": 8649,
      "्रम्हपुत्र": 8650,
      "alaysia": 8651,
      "▁मसाले": 8652,
      "riya": 8653,
      "▁\"छ": 8654,
      "▁[Archived](https://web.archive.org/web/20210": 8655,
      "तीसंख": 8656,
      "_A7C": 8657,
      "तीसंख्येनुसार": 8658,
      "iated": 8659,
      "ातीला": 8660,
      "leav": 8661,
      "▁नकाशा": 8662,
      ".\"": 8663,
      "ुवर्ण": 8664,
      "angered": 8665,
      "Heitz": 8666,
      "-n": 8667,
      "Heitzman": 8668,
      "119": 8669,
      "्रायम्फे": 8670,
      "wh": 8671,
      "ठाणे": 8672,
      "▁At": 8673,
      "पूजा": 8674,
      "▁rock": 8675,
      "▁उत्पन्": 8676,
      "ingapore": 8677,
      "▁विकस": 8678,
      "leshow/": 8679,
      "▁यांना": 8680,
      "▁[Central": 8681,
      "▁नमुने": 8682,
      "gl": 8683,
      "▁मान्य": 8684,
      ".ni": 8685,
      "tudies": 8686,
      "शर": 8687,
      "ogri": 8688,
      "शरद": 8689,
      "aries": 8690,
      "नानुसार": 8691,
      "ymbol": 8692,
      "Indischer": 8693,
      "▁four": 8694,
      "Indischer_M": 8695,
      "/s": 8696,
      "र्बट": 8697,
      "▁led": 8698,
      "using\\_": 8699,
[...]
